#ifndef MODELTEST_H
#define MODELTEST_H


unsigned int modeltest_len = 9184;
unsigned char modeltest[] = {
 0x28, 0x00, 0x00, 0x00, 0x54, 0x46, 0x4c, 0x33, 0x00, 0x00, 0x00, 0x00,
  0x00, 0x00, 0x00, 0x00, 0x00, 0x00, 0x00, 0x00, 0x14, 0x00, 0x20, 0x00,
  0x04, 0x00, 0x08, 0x00, 0x0c, 0x00, 0x10, 0x00, 0x14, 0x00, 0x00, 0x00,
  0x18, 0x00, 0x1c, 0x00, 0x14, 0x00, 0x00, 0x00, 0x03, 0x00, 0x00, 0x00,
  0x4c, 0x23, 0x00, 0x00, 0x60, 0x1c, 0x00, 0x00, 0x48, 0x1c, 0x00, 0x00,
  0xcc, 0x00, 0x00, 0x00, 0x94, 0x00, 0x00, 0x00, 0x04, 0x00, 0x00, 0x00,
  0x01, 0x00, 0x00, 0x00, 0x10, 0x00, 0x00, 0x00, 0x0c, 0x00, 0x14, 0x00,
  0x04, 0x00, 0x08, 0x00, 0x0c, 0x00, 0x10, 0x00, 0x0c, 0x00, 0x00, 0x00,
  0x50, 0x00, 0x00, 0x00, 0x2c, 0x00, 0x00, 0x00, 0x14, 0x00, 0x00, 0x00,
  0x04, 0x00, 0x00, 0x00, 0x05, 0x00, 0x00, 0x00, 0x73, 0x65, 0x72, 0x76,
  0x65, 0x00, 0x00, 0x00, 0x0f, 0x00, 0x00, 0x00, 0x73, 0x65, 0x72, 0x76,
  0x69, 0x6e, 0x67, 0x5f, 0x64, 0x65, 0x66, 0x61, 0x75, 0x6c, 0x74, 0x00,
  0x01, 0x00, 0x00, 0x00, 0x04, 0x00, 0x00, 0x00, 0xbc, 0xff, 0xff, 0xff,
  0x08, 0x00, 0x00, 0x00, 0x0f, 0x00, 0x00, 0x00, 0x07, 0x00, 0x00, 0x00,
  0x64, 0x65, 0x6e, 0x73, 0x65, 0x5f, 0x31, 0x00, 0x01, 0x00, 0x00, 0x00,
  0x04, 0x00, 0x00, 0x00, 0xa2, 0xe3, 0xff, 0xff, 0x04, 0x00, 0x00, 0x00,
  0x0c, 0x00, 0x00, 0x00, 0x63, 0x6f, 0x6e, 0x76, 0x32, 0x64, 0x5f, 0x69,
  0x6e, 0x70, 0x75, 0x74, 0x00, 0x00, 0x00, 0x00, 0x01, 0x00, 0x00, 0x00,
  0x0c, 0x00, 0x00, 0x00, 0x08, 0x00, 0x0c, 0x00, 0x04, 0x00, 0x08, 0x00,
  0x08, 0x00, 0x00, 0x00, 0x08, 0x00, 0x00, 0x00, 0x11, 0x00, 0x00, 0x00,
  0x13, 0x00, 0x00, 0x00, 0x6d, 0x69, 0x6e, 0x5f, 0x72, 0x75, 0x6e, 0x74,
  0x69, 0x6d, 0x65, 0x5f, 0x76, 0x65, 0x72, 0x73, 0x69, 0x6f, 0x6e, 0x00,
  0x12, 0x00, 0x00, 0x00, 0x70, 0x1b, 0x00, 0x00, 0x5c, 0x1b, 0x00, 0x00,
  0x40, 0x1b, 0x00, 0x00, 0x0c, 0x1b, 0x00, 0x00, 0xe8, 0x1a, 0x00, 0x00,
  0xc4, 0x1a, 0x00, 0x00, 0xa0, 0x1a, 0x00, 0x00, 0x4c, 0x02, 0x00, 0x00,
  0xf8, 0x01, 0x00, 0x00, 0xb4, 0x01, 0x00, 0x00, 0xa0, 0x00, 0x00, 0x00,
  0x94, 0x00, 0x00, 0x00, 0x80, 0x00, 0x00, 0x00, 0x6c, 0x00, 0x00, 0x00,
  0x58, 0x00, 0x00, 0x00, 0x44, 0x00, 0x00, 0x00, 0x30, 0x00, 0x00, 0x00,
  0x04, 0x00, 0x00, 0x00, 0x3e, 0xe4, 0xff, 0xff, 0x04, 0x00, 0x00, 0x00,
  0x10, 0x00, 0x00, 0x00, 0x31, 0x2e, 0x35, 0x2e, 0x30, 0x00, 0x00, 0x00,
  0x00, 0x00, 0x00, 0x00, 0x00, 0x00, 0x00, 0x00, 0x00, 0x00, 0x00, 0x00,
  0x00, 0x00, 0x00, 0x00, 0x00, 0x00, 0x00, 0x00, 0x40, 0xde, 0xff, 0xff,
  0x00, 0x00, 0x00, 0x00, 0x00, 0x00, 0x00, 0x00, 0x00, 0x00, 0x00, 0x00,
  0x50, 0xde, 0xff, 0xff, 0x00, 0x00, 0x00, 0x00, 0x00, 0x00, 0x00, 0x00,
  0x00, 0x00, 0x00, 0x00, 0x60, 0xde, 0xff, 0xff, 0x00, 0x00, 0x00, 0x00,
  0x00, 0x00, 0x00, 0x00, 0x00, 0x00, 0x00, 0x00, 0x70, 0xde, 0xff, 0xff,
  0x00, 0x00, 0x00, 0x00, 0x00, 0x00, 0x00, 0x00, 0x00, 0x00, 0x00, 0x00,
  0x80, 0xde, 0xff, 0xff, 0x00, 0x00, 0x00, 0x00, 0x00, 0x00, 0x00, 0x00,
  0x00, 0x00, 0x00, 0x00, 0x90, 0xde, 0xff, 0xff, 0x00, 0x00, 0x00, 0x00,
  0xbe, 0xe4, 0xff, 0xff, 0x04, 0x00, 0x00, 0x00, 0x00, 0x01, 0x00, 0x00,
  0xa9, 0xad, 0xd0, 0x3e, 0x08, 0x10, 0xbc, 0x3e, 0xe1, 0xc1, 0x33, 0x3e,
  0x62, 0x4d, 0x8a, 0xbe, 0xb6, 0xb6, 0xc2, 0x3e, 0x30, 0xeb, 0xaa, 0x3e,
  0x43, 0xf3, 0x40, 0x3e, 0xa9, 0xd1, 0xe7, 0x3e, 0xe9, 0x2a, 0x0d, 0x3e,
  0xa7, 0x49, 0x70, 0xbe, 0x4d, 0x6b, 0x44, 0xbe, 0xf7, 0x0c, 0x85, 0x3d,
  0x99, 0x2b, 0x6e, 0x3e, 0x88, 0xc2, 0x80, 0x3e, 0x42, 0x54, 0x66, 0x3e,
  0x2b, 0xf2, 0xca, 0xbe, 0x9e, 0x61, 0xc5, 0x3e, 0x61, 0xcf, 0xc4, 0xbb,
  0xf9, 0xfa, 0x40, 0xbe, 0xd1, 0xa5, 0xb1, 0xbd, 0x73, 0xb0, 0x00, 0x3e,
  0x6b, 0x86, 0xc0, 0xbd, 0xfc, 0x99, 0x58, 0x3e, 0xa5, 0x1a, 0xe8, 0xbd,
  0x54, 0xb9, 0xbc, 0xbe, 0x6d, 0x75, 0x5d, 0x3d, 0x3b, 0x4e, 0x54, 0x3e,
  0x3e, 0x9e, 0x98, 0x3e, 0x62, 0xd0, 0xd6, 0x3e, 0xdb, 0x94, 0x20, 0xbd,
  0x59, 0xbe, 0x82, 0xbe, 0xe7, 0x8a, 0x25, 0xbe, 0xfe, 0x19, 0xc8, 0x3c,
  0xe4, 0x42, 0x2e, 0x3e, 0xf9, 0x2d, 0xf3, 0x3d, 0x5f, 0x5f, 0x9c, 0x3e,
  0x58, 0x67, 0x7e, 0xbe, 0xcd, 0x1c, 0x08, 0xbc, 0x27, 0xc2, 0x4d, 0x3e,
  0x4a, 0xe4, 0xab, 0xbd, 0xa4, 0xa8, 0x53, 0xbe, 0xb8, 0x3e, 0x96, 0x3e,
  0x9b, 0x3a, 0xa2, 0xbe, 0xc8, 0x27, 0x3c, 0x3e, 0x7a, 0x5e, 0x04, 0x3e,
  0x63, 0x04, 0x36, 0x3e, 0x2d, 0x1a, 0x26, 0x3e, 0xed, 0xe9, 0xb1, 0xbe,
  0x9b, 0xa0, 0xd3, 0xbe, 0x9a, 0x77, 0x7c, 0xbe, 0xfe, 0x22, 0xe3, 0xbd,
  0x85, 0x72, 0xf7, 0xbd, 0x57, 0xdb, 0x0d, 0xbb, 0x0d, 0x3d, 0x96, 0xbe,
  0xc9, 0xc3, 0x87, 0x3d, 0x3d, 0xd8, 0xa4, 0x3e, 0xef, 0x3d, 0xe2, 0xbd,
  0x97, 0xb7, 0xa3, 0x3e, 0xd7, 0x9d, 0x69, 0x3e, 0x39, 0x5d, 0x92, 0xbe,
  0xa6, 0x3f, 0xc1, 0x3d, 0x9a, 0xbf, 0x10, 0xbc, 0xeb, 0xf3, 0xe8, 0xbd,
  0xa6, 0x62, 0xcf, 0xbe, 0x00, 0x00, 0x00, 0x00, 0xce, 0xe5, 0xff, 0xff,
  0x04, 0x00, 0x00, 0x00, 0x30, 0x00, 0x00, 0x00, 0x7e, 0xa2, 0x5e, 0x3d,
  0x0a, 0x1a, 0xc5, 0xbd, 0xcf, 0x39, 0x79, 0x3d, 0x9a, 0x2b, 0xe5, 0x3e,
  0x74, 0x95, 0x66, 0x3e, 0x50, 0x96, 0x5b, 0x3e, 0x18, 0x52, 0xba, 0x3e,
  0x00, 0x49, 0xf9, 0xbc, 0xc3, 0x3d, 0x94, 0xbe, 0x8b, 0xdb, 0x24, 0xbf,
  0xd6, 0x10, 0xd0, 0x3d, 0x5c, 0x13, 0x2f, 0xbd, 0x00, 0x00, 0x00, 0x00,
  0x0e, 0xe6, 0xff, 0xff, 0x04, 0x00, 0x00, 0x00, 0x40, 0x00, 0x00, 0x00,
  0x6b, 0xf1, 0x42, 0x3f, 0xb0, 0x48, 0x41, 0xbf, 0x0e, 0xec, 0x68, 0x3e,
  0x33, 0xcd, 0x3f, 0x3f, 0xa1, 0x5f, 0x95, 0xbd, 0x74, 0x1f, 0x3f, 0x3f,
  0xf8, 0x80, 0xac, 0x3e, 0xe6, 0xa9, 0x03, 0xbe, 0xc3, 0x2b, 0xe5, 0x3e,
  0x67, 0xc5, 0xa9, 0xbe, 0x40, 0x46, 0x1d, 0x3f, 0x80, 0xe3, 0x1e, 0xbf,
  0xdc, 0x5c, 0x03, 0x3f, 0xbf, 0x8f, 0xee, 0x3e, 0xca, 0xe2, 0x36, 0x3f,
  0xbd, 0xe5, 0x0e, 0x3f, 0x00, 0x00, 0x00, 0x00, 0x5e, 0xe6, 0xff, 0xff,
  0x04, 0x00, 0x00, 0x00, 0x40, 0x18, 0x00, 0x00, 0x07, 0xc7, 0xc2, 0x5f,
  0xd7, 0x51, 0x67, 0xd1, 0x34, 0x12, 0xc3, 0xf6, 0xd2, 0x5b, 0x73, 0x0c,
  0x18, 0xd0, 0xc7, 0x41, 0xa3, 0x47, 0x4d, 0xd4, 0xbc, 0x3c, 0xec, 0xe4,
  0xbd, 0xc7, 0x0f, 0xa3, 0x58, 0xb9, 0xa8, 0x14, 0xf4, 0x14, 0x77, 0xee,
  0xf2, 0xc0, 0xf7, 0xe5, 0x32, 0x0e, 0x13, 0x9f, 0x05, 0x49, 0x38, 0x36,
  0xff, 0x51, 0xf3, 0xa1, 0xfb, 0xa5, 0x11, 0x51, 0xd4, 0x65, 0xd2, 0xc7,
  0x25, 0x4c, 0x39, 0x2b, 0xab, 0xe7, 0x01, 0x0b, 0x39, 0x0d, 0xf2, 0x10,
  0x31, 0x41, 0x0f, 0xee, 0x1e, 0xaa, 0xe2, 0xe8, 0xb1, 0xd3, 0x4b, 0xcc,
  0xed, 0x9e, 0xf8, 0x0f, 0x28, 0xd1, 0x77, 0x0f, 0x53, 0xac, 0xa8, 0x06,
  0x2a, 0xfe, 0x5f, 0xed, 0xe9, 0xf5, 0x17, 0xb3, 0xa1, 0x10, 0x4b, 0xbd,
  0x3e, 0xdc, 0xa9, 0xea, 0x54, 0x6b, 0x0e, 0xd1, 0xeb, 0x39, 0xc4, 0xcb,
  0x24, 0x3d, 0xf1, 0xd1, 0xc0, 0xef, 0x07, 0x3a, 0xfa, 0xf3, 0x2a, 0x2a,
  0x22, 0x0a, 0xf8, 0x41, 0xb0, 0x19, 0x45, 0xd0, 0x3d, 0x19, 0x02, 0xd9,
  0xde, 0x14, 0x17, 0x27, 0xf6, 0xa2, 0x3a, 0xd6, 0xfc, 0x2d, 0x27, 0x04,
  0x3c, 0xa0, 0xb3, 0x54, 0x4a, 0xec, 0x36, 0x44, 0x58, 0xa6, 0x4c, 0xb2,
  0x27, 0x0d, 0x1c, 0xc9, 0xcc, 0x27, 0x4b, 0xe2, 0x4a, 0x43, 0x14, 0xb8,
  0x66, 0xfe, 0xc1, 0xb7, 0xf8, 0x7c, 0xc8, 0x46, 0x5f, 0xb4, 0xdc, 0x28,
  0x40, 0x1b, 0x54, 0xd7, 0xd2, 0xee, 0xb4, 0xca, 0xc2, 0x59, 0x58, 0x17,
  0xea, 0xae, 0x0b, 0x2f, 0x2e, 0x7c, 0x4a, 0x0e, 0x2c, 0x29, 0x25, 0x40,
  0xbc, 0x3d, 0x36, 0x0f, 0xe1, 0xf9, 0x36, 0x0a, 0xa8, 0x60, 0x39, 0xee,
  0x2b, 0xc7, 0xc3, 0x25, 0xd2, 0x64, 0x0f, 0xc6, 0xc3, 0x12, 0x96, 0xbc,
  0x2c, 0xfc, 0x2a, 0xa6, 0x55, 0xe9, 0x1f, 0x5f, 0xc2, 0x7a, 0x34, 0x24,
  0x2f, 0xa1, 0x01, 0xc2, 0x39, 0x06, 0x5f, 0xd6, 0xad, 0x35, 0xde, 0xf3,
  0x1b, 0xdd, 0xda, 0xd7, 0xb4, 0x1b, 0xda, 0xd2, 0xa1, 0x02, 0x78, 0xb4,
  0x0c, 0x34, 0x03, 0x34, 0x22, 0xe2, 0x1d, 0xf9, 0xcb, 0xe2, 0xd6, 0x46,
  0x16, 0x26, 0x0b, 0x0e, 0x05, 0xf4, 0xe8, 0xe9, 0xa9, 0x5d, 0x25, 0xa9,
  0xe8, 0x35, 0x0d, 0x3d, 0xf0, 0x23, 0xc6, 0xca, 0x4b, 0xbb, 0xc5, 0xb7,
  0xf1, 0xe8, 0xdf, 0x06, 0x35, 0xee, 0xf8, 0x5f, 0x4f, 0x07, 0xed, 0x24,
  0x21, 0xb8, 0x00, 0xf7, 0xc0, 0x0a, 0x73, 0x2b, 0xb5, 0xb2, 0x35, 0xd8,
  0x11, 0x2f, 0x6b, 0x11, 0xd7, 0xf3, 0x29, 0x22, 0x1c, 0x68, 0x6c, 0xf4,
  0x44, 0x23, 0xa7, 0x58, 0x2e, 0x04, 0x06, 0xea, 0xdf, 0x22, 0xe1, 0xda,
  0xc2, 0x4e, 0xc9, 0xd1, 0xdf, 0xc5, 0x03, 0xf6, 0x02, 0xdd, 0x2d, 0xdc,
  0xe9, 0xbe, 0xf6, 0x1f, 0xa2, 0x3e, 0x4d, 0x4e, 0xea, 0xc1, 0xcc, 0xd8,
  0xaf, 0xd9, 0x33, 0xb3, 0xfb, 0xe1, 0x46, 0xbd, 0xdf, 0x3e, 0x6f, 0xfb,
  0xad, 0xa7, 0x32, 0xe9, 0xef, 0x66, 0x04, 0x3f, 0x50, 0x13, 0xc6, 0xdf,
  0xe4, 0x47, 0xd3, 0xe8, 0x17, 0xeb, 0xd7, 0x14, 0x2b, 0xc8, 0xc7, 0x32,
  0x08, 0xac, 0x10, 0x44, 0x2a, 0xd8, 0x4f, 0x0e, 0x21, 0x1e, 0x15, 0x02,
  0x3d, 0xd9, 0x37, 0x48, 0x5f, 0xc4, 0x24, 0xb9, 0xbc, 0x08, 0x00, 0x2a,
  0x13, 0x15, 0xf2, 0xf8, 0xb0, 0xc7, 0xc3, 0x19, 0xc6, 0x0d, 0xb8, 0xf0,
  0x17, 0x42, 0x1b, 0xf4, 0xeb, 0x27, 0xc6, 0x3f, 0xab, 0x78, 0x55, 0x48,
  0x62, 0x9a, 0x0a, 0x1a, 0x05, 0x6f, 0x17, 0x51, 0x0a, 0xe4, 0x10, 0x11,
  0xa1, 0x50, 0xda, 0xd9, 0xc3, 0xe7, 0x19, 0xfb, 0xf7, 0x49, 0x00, 0x2b,
  0xfb, 0x06, 0xe7, 0x2e, 0xe0, 0x09, 0xbe, 0xe4, 0x3f, 0x02, 0x0c, 0xae,
  0x0e, 0x35, 0xf1, 0x13, 0x30, 0xb7, 0xf8, 0x37, 0x26, 0x68, 0x27, 0x0c,
  0x2a, 0xe0, 0xaa, 0xfe, 0xb2, 0x00, 0xf0, 0x9d, 0xa4, 0x3e, 0xe6, 0xbc,
  0xf7, 0x56, 0x10, 0x47, 0xdf, 0x43, 0xd4, 0xc4, 0x29, 0x13, 0x4e, 0x3a,
  0x08, 0x2f, 0xf0, 0x0a, 0x4f, 0xd5, 0x16, 0x24, 0xfd, 0xbd, 0xe3, 0xd3,
  0xc3, 0x30, 0x1f, 0xfa, 0xdb, 0xa7, 0x28, 0x08, 0x04, 0x3a, 0x6d, 0x53,
  0x5d, 0xd6, 0x00, 0x22, 0xe5, 0xd7, 0xfb, 0xb7, 0xea, 0x14, 0xbb, 0x69,
  0x08, 0xd1, 0x52, 0x20, 0x19, 0x9f, 0xfe, 0xf6, 0x9f, 0x28, 0x6e, 0xc1,
  0x4e, 0xa4, 0xcf, 0x37, 0xab, 0x0c, 0xe3, 0x21, 0x26, 0xf3, 0xbf, 0xdc,
  0xe5, 0xdf, 0x61, 0xfc, 0xcf, 0xb8, 0xde, 0x02, 0x20, 0x13, 0xdc, 0xdc,
  0xbe, 0x28, 0x2e, 0x1d, 0xaf, 0x12, 0xe3, 0x1d, 0x33, 0xb0, 0x21, 0xb8,
  0x43, 0x7d, 0x1c, 0xc3, 0x0e, 0x51, 0x35, 0x12, 0xb1, 0x19, 0x6d, 0xd6,
  0xcc, 0xa5, 0xe2, 0x38, 0xa5, 0x07, 0x3a, 0xbd, 0x58, 0xec, 0x13, 0xd6,
  0xed, 0x27, 0x3e, 0xc8, 0xbd, 0xb6, 0x98, 0xf1, 0x16, 0x3c, 0x1d, 0xc0,
  0xe8, 0xca, 0x3e, 0xcc, 0xae, 0xd1, 0x79, 0xb9, 0xda, 0x09, 0xa3, 0xd7,
  0xec, 0x61, 0xc8, 0x02, 0x35, 0xcb, 0x44, 0x06, 0xee, 0x6d, 0x22, 0xe2,
  0x25, 0xaa, 0xbc, 0x19, 0xdb, 0x44, 0x1d, 0x9c, 0x63, 0xf0, 0xe3, 0x0d,
  0x0f, 0x0e, 0xbf, 0xaa, 0x2a, 0xf8, 0x05, 0x0a, 0xa1, 0x2e, 0x41, 0x45,
  0xe9, 0xe1, 0x30, 0xc3, 0xa2, 0x2f, 0x76, 0xdc, 0x0a, 0xd8, 0x1a, 0x3b,
  0xb5, 0xd3, 0xed, 0xe1, 0x15, 0xe0, 0x9e, 0xd9, 0x30, 0xf3, 0xdb, 0xc9,
  0xd4, 0xe0, 0xb4, 0x25, 0xb0, 0x2a, 0x18, 0xab, 0xc6, 0x4d, 0xff, 0xbe,
  0xe3, 0x52, 0xeb, 0x02, 0xff, 0x00, 0xe2, 0xc1, 0xd9, 0x66, 0xeb, 0xa8,
  0xb0, 0xa1, 0xb6, 0xc7, 0x4c, 0x35, 0xc7, 0xc1, 0x1d, 0xe2, 0x46, 0xf9,
  0x2f, 0xcb, 0x6e, 0xef, 0xd2, 0x13, 0x01, 0xff, 0x69, 0xfd, 0x23, 0x37,
  0x59, 0xea, 0x00, 0x3f, 0x1e, 0x24, 0x34, 0x32, 0x58, 0x24, 0x2f, 0x41,
  0x21, 0xf2, 0xd3, 0xcd, 0x54, 0xc0, 0x6e, 0x39, 0x23, 0xd5, 0xe4, 0x11,
  0x23, 0x0e, 0x69, 0x19, 0xea, 0x37, 0xf2, 0x0c, 0x30, 0x33, 0xdd, 0x43,
  0x31, 0x51, 0xbd, 0xb1, 0xe5, 0xe4, 0xc1, 0xf2, 0x3a, 0xd2, 0xca, 0xfe,
  0xa2, 0xf3, 0xd3, 0x3f, 0xe4, 0x40, 0x15, 0xcf, 0xa3, 0x28, 0x72, 0xb7,
  0x1c, 0xe5, 0xfd, 0xe5, 0xd1, 0xef, 0x01, 0x55, 0xd9, 0x36, 0xfe, 0x00,
  0x2f, 0x55, 0x6a, 0x1f, 0x18, 0x07, 0x4e, 0xff, 0xb0, 0xe3, 0x43, 0x60,
  0x0d, 0xcb, 0x30, 0x1a, 0x44, 0xd7, 0xe5, 0x00, 0x6b, 0x0a, 0xf0, 0x61,
  0x53, 0x3f, 0xff, 0xf8, 0xdf, 0xc2, 0x3e, 0xae, 0xb2, 0x2b, 0x17, 0x5d,
  0x17, 0xd7, 0xf3, 0x55, 0xd2, 0x27, 0x58, 0x32, 0xeb, 0x1d, 0x3f, 0xd9,
  0x12, 0x1a, 0xce, 0x24, 0x58, 0xc3, 0x2f, 0xcb, 0xfe, 0x18, 0xce, 0xe2,
  0x34, 0xc7, 0x1a, 0xc2, 0x0f, 0x5b, 0x3f, 0xeb, 0x4f, 0xdc, 0x12, 0xc7,
  0x2c, 0x37, 0xd0, 0xae, 0xbf, 0x9c, 0x4b, 0x4a, 0xbe, 0x15, 0xe2, 0x0f,
  0x3f, 0x26, 0x1b, 0xfd, 0x4f, 0xd4, 0x6d, 0x11, 0xd3, 0x01, 0x08, 0xef,
  0x05, 0xdf, 0x6d, 0x38, 0x55, 0xff, 0x46, 0xfb, 0x3f, 0x33, 0x4e, 0x1f,
  0x1b, 0xbc, 0x28, 0x60, 0xc6, 0x02, 0xdf, 0x18, 0x3e, 0xaa, 0x1d, 0x07,
  0x22, 0x5c, 0xdb, 0xfa, 0xe9, 0xab, 0xb2, 0x4b, 0xdc, 0x5d, 0xbb, 0xbd,
  0x26, 0xab, 0xcd, 0x26, 0x05, 0x2f, 0xee, 0x49, 0xb9, 0xa1, 0xe0, 0x30,
  0x38, 0x72, 0x75, 0x63, 0x0a, 0xb6, 0xbf, 0x3d, 0x26, 0xc2, 0x5e, 0x0c,
  0x32, 0xe8, 0xe4, 0x1f, 0xb2, 0xf4, 0x59, 0x0f, 0xc3, 0xf3, 0x15, 0x1d,
  0x57, 0x60, 0x0d, 0xda, 0xda, 0xd1, 0xa0, 0xd1, 0xcc, 0x37, 0x2d, 0x07,
  0xcd, 0xcf, 0x22, 0xe0, 0x4e, 0x32, 0x40, 0x56, 0x23, 0xdb, 0xab, 0xaa,
  0x01, 0xf1, 0x1c, 0xfb, 0xe1, 0xd9, 0x3b, 0xf4, 0xe1, 0x6a, 0x26, 0x2e,
  0xf0, 0x52, 0xb2, 0x4d, 0xff, 0xfb, 0x30, 0x5c, 0x68, 0xa5, 0x05, 0x4d,
  0x0a, 0x11, 0x3f, 0x38, 0xb5, 0x0b, 0x41, 0x12, 0x49, 0x2e, 0x05, 0xfd,
  0xe4, 0xed, 0xfd, 0xdf, 0x34, 0x2f, 0xf9, 0xce, 0x4f, 0xbe, 0x21, 0xda,
  0x00, 0x0d, 0x70, 0x28, 0x44, 0xa2, 0x12, 0x59, 0xb4, 0x3f, 0x27, 0xe1,
  0xb6, 0xcd, 0xf4, 0x62, 0xe4, 0xcb, 0x67, 0x34, 0xf7, 0x23, 0xb0, 0xa7,
  0xb9, 0xe4, 0x4f, 0x58, 0xbe, 0xc0, 0x15, 0x12, 0xfd, 0x70, 0xe3, 0x04,
  0x1a, 0xdd, 0x32, 0x2b, 0xda, 0x0f, 0x1f, 0x0b, 0x20, 0xf9, 0xa5, 0x5d,
  0x01, 0x30, 0x56, 0x4a, 0x16, 0x2c, 0x34, 0xb2, 0x56, 0xc6, 0xe0, 0xe6,
  0x3b, 0x42, 0x13, 0xea, 0xf0, 0x0e, 0xfd, 0x57, 0xf6, 0x40, 0x20, 0xf9,
  0x00, 0x0b, 0x07, 0xed, 0x41, 0x2a, 0xb9, 0xb9, 0xf6, 0x74, 0xf9, 0x61,
  0x49, 0x54, 0x42, 0x3c, 0x09, 0x3e, 0xd5, 0xbd, 0x5b, 0x40, 0x38, 0x5d,
  0xec, 0xd5, 0xcc, 0xad, 0x5c, 0xa6, 0xd7, 0x44, 0xdb, 0xcc, 0xcc, 0x3d,
  0xff, 0xbb, 0xfd, 0x10, 0x06, 0xef, 0x69, 0x54, 0x67, 0xd1, 0x12, 0x1f,
  0x40, 0x78, 0xf7, 0x1a, 0xfd, 0x39, 0xb2, 0x5d, 0x23, 0x3b, 0xbd, 0x26,
  0x1d, 0x01, 0xf8, 0xfc, 0x3f, 0x3b, 0x11, 0xa7, 0x35, 0xb6, 0xc8, 0xce,
  0xf7, 0x26, 0x5b, 0x5d, 0x22, 0x49, 0xa5, 0x07, 0xfe, 0xc4, 0xc8, 0x2b,
  0xb6, 0x45, 0xba, 0xe1, 0x0d, 0xfd, 0xe3, 0xbd, 0x6d, 0x1d, 0x34, 0x58,
  0x50, 0x69, 0xfa, 0xfc, 0xd1, 0xf3, 0x13, 0xf0, 0xee, 0xff, 0xbe, 0x2c,
  0x4a, 0xc2, 0x35, 0x12, 0xeb, 0xdd, 0xdb, 0xd7, 0x20, 0xb2, 0x22, 0x36,
  0xf0, 0x07, 0xda, 0xfa, 0x09, 0xc0, 0xb6, 0x3e, 0xbc, 0x2d, 0x50, 0x2b,
  0x04, 0xf6, 0x9d, 0x43, 0x5a, 0x39, 0x63, 0xe6, 0x25, 0x41, 0xc3, 0x14,
  0x4f, 0xe6, 0x0f, 0xda, 0x1f, 0x4f, 0x1c, 0x2c, 0xd0, 0xbe, 0x5d, 0xc8,
  0xc1, 0xc2, 0xfa, 0x30, 0x22, 0x40, 0x70, 0xd6, 0x2e, 0x0d, 0x09, 0x14,
  0xfc, 0x2b, 0x59, 0xcf, 0xd5, 0xcc, 0x3c, 0x5b, 0x33, 0xfa, 0xe9, 0xae,
  0x25, 0xe3, 0x06, 0x05, 0x30, 0x1c, 0x6e, 0xd0, 0xf5, 0x26, 0x31, 0x26,
  0xe9, 0x23, 0xd2, 0x30, 0x18, 0x29, 0x9d, 0x32, 0x4f, 0xcc, 0x5e, 0xca,
  0xcd, 0xf4, 0xd7, 0xbe, 0xd9, 0xca, 0x41, 0x5a, 0x06, 0xc1, 0xb1, 0x12,
  0x57, 0xfb, 0x71, 0x5a, 0x3a, 0xc3, 0x2c, 0xe3, 0xbb, 0x6b, 0xe6, 0xe5,
  0x0a, 0xa6, 0xe3, 0xf7, 0x20, 0x08, 0x3e, 0xb0, 0x67, 0xe0, 0xa3, 0x64,
  0xb9, 0x0e, 0x31, 0x13, 0xc5, 0xc7, 0x40, 0x1f, 0x42, 0xe1, 0x70, 0xce,
  0x49, 0x16, 0xe8, 0xea, 0x0b, 0xdd, 0x4b, 0xed, 0xf2, 0x0b, 0x2c, 0x3e,
  0xa8, 0xf5, 0x36, 0xb0, 0x4c, 0xee, 0x02, 0x37, 0xe0, 0x43, 0x65, 0x43,
  0x5f, 0xd7, 0xb6, 0xb2, 0xe6, 0xdf, 0x12, 0x1c, 0x27, 0xaa, 0xe7, 0xbb,
  0xd2, 0xcc, 0xd3, 0x3f, 0x44, 0x53, 0xe4, 0x53, 0x0a, 0xfa, 0x6e, 0x66,
  0xf8, 0x35, 0xec, 0xe8, 0x05, 0xcb, 0x16, 0xf6, 0x42, 0x1d, 0x1e, 0x0b,
  0x31, 0x69, 0xc5, 0xc9, 0x57, 0xba, 0xf9, 0x01, 0x49, 0xca, 0x3f, 0x00,
  0x32, 0xc6, 0xec, 0xbc, 0x48, 0x18, 0xcf, 0x39, 0xe8, 0x22, 0xc7, 0x5a,
  0x19, 0xea, 0xda, 0x3e, 0x64, 0x32, 0xdb, 0x5f, 0xac, 0x42, 0x17, 0x1e,
  0x24, 0xc6, 0x1c, 0x0e, 0x0e, 0xf1, 0x05, 0xe7, 0x3a, 0x00, 0x05, 0x59,
  0xc8, 0xf5, 0x06, 0x30, 0x23, 0x3d, 0x33, 0x3a, 0xa7, 0x39, 0x63, 0x59,
  0x5d, 0x1d, 0x15, 0xe5, 0xa5, 0xd2, 0x73, 0x33, 0x4e, 0x55, 0xa2, 0xe0,
  0x14, 0x65, 0xb7, 0x35, 0xc2, 0x9d, 0x42, 0xc2, 0xc0, 0xdd, 0x14, 0xc9,
  0x2f, 0xfc, 0xf0, 0x5b, 0xc1, 0xb8, 0xdb, 0x15, 0x0f, 0xf2, 0x47, 0x2d,
  0xfe, 0x5d, 0xdd, 0xf4, 0xf8, 0xfc, 0x2f, 0x35, 0x05, 0xd7, 0x23, 0x37,
  0xd7, 0xe8, 0x22, 0x67, 0x25, 0xed, 0xc9, 0x29, 0x19, 0xdb, 0x05, 0x2c,
  0xe8, 0xe0, 0xf1, 0xd0, 0xfa, 0x3c, 0xe5, 0x58, 0x46, 0xd6, 0x22, 0x3b,
  0x2f, 0xd0, 0xea, 0x21, 0xfa, 0x21, 0xba, 0x5c, 0xc7, 0x02, 0xf9, 0xb0,
  0x21, 0x23, 0x2d, 0x50, 0xbf, 0x34, 0x23, 0x2d, 0x40, 0xc8, 0x58, 0xb1,
  0x23, 0xee, 0x1f, 0xe1, 0xb1, 0x2f, 0x14, 0xf5, 0xe4, 0x20, 0x30, 0xf8,
  0xca, 0xd0, 0x47, 0xcb, 0xc0, 0xfd, 0x10, 0xf1, 0x2c, 0xe2, 0x1c, 0x54,
  0xeb, 0xc9, 0xab, 0xf8, 0x10, 0xd1, 0xbd, 0x07, 0xc8, 0xfa, 0xc9, 0x44,
  0x48, 0x22, 0x1c, 0xd0, 0x05, 0xf4, 0xb8, 0xf5, 0xea, 0x14, 0x67, 0x10,
  0xb8, 0x3f, 0x49, 0x48, 0x33, 0xfe, 0x1e, 0xa2, 0xc9, 0xc2, 0x10, 0x18,
  0x1c, 0xbf, 0xce, 0x4b, 0xc3, 0x30, 0xe4, 0xdc, 0xf3, 0x41, 0xbf, 0x3d,
  0xec, 0x06, 0x2e, 0x0d, 0xc1, 0xd9, 0x61, 0x53, 0xd0, 0x21, 0x22, 0xca,
  0x3b, 0x04, 0x34, 0x24, 0xc6, 0xa8, 0xd7, 0x2e, 0xbe, 0xc5, 0xf7, 0x33,
  0x1b, 0xc1, 0xfb, 0xb3, 0xbc, 0x54, 0xb5, 0xf8, 0xc5, 0x42, 0x1c, 0x17,
  0xc0, 0x24, 0xd4, 0xd6, 0x44, 0xe5, 0xd6, 0x2f, 0x5d, 0x01, 0xd6, 0x4c,
  0xaf, 0x46, 0xdd, 0xfa, 0xf3, 0x16, 0xd3, 0x48, 0x5b, 0xb7, 0x2d, 0x53,
  0x31, 0x48, 0x23, 0xf9, 0x0c, 0xd3, 0xb3, 0x61, 0x29, 0x65, 0xf2, 0xe0,
  0x46, 0xb0, 0x0a, 0x0d, 0x4e, 0x08, 0xbd, 0xaf, 0x39, 0xc5, 0x26, 0x09,
  0xd0, 0xb6, 0xde, 0xb2, 0x52, 0x03, 0x3a, 0xe5, 0xc6, 0xf4, 0x03, 0x4e,
  0xba, 0x41, 0xee, 0x29, 0x55, 0xee, 0x4b, 0xa9, 0xdc, 0xfa, 0x3f, 0x57,
  0xf3, 0x2f, 0xb3, 0x4e, 0xf6, 0xf9, 0x4f, 0xd7, 0xec, 0x4f, 0x17, 0x5d,
  0xab, 0x9c, 0x01, 0x54, 0xe8, 0xd4, 0xca, 0xb5, 0x4f, 0xa8, 0x4e, 0x67,
  0x40, 0x66, 0x0d, 0x0a, 0xc9, 0x0c, 0x9c, 0x40, 0x0f, 0x61, 0x13, 0x54,
  0xc8, 0x3e, 0xc3, 0xa9, 0xd7, 0x3c, 0x5b, 0xce, 0x06, 0xc8, 0xa3, 0x23,
  0xc7, 0xdd, 0xb0, 0x58, 0x50, 0x3d, 0xfc, 0xe0, 0xf2, 0x0c, 0xe7, 0xc3,
  0xc2, 0x2d, 0x08, 0x55, 0x21, 0x23, 0x38, 0x42, 0xe2, 0xea, 0xf4, 0xd5,
  0x3d, 0xcd, 0x51, 0xb6, 0x31, 0xd5, 0xdc, 0x30, 0xd5, 0x1e, 0x68, 0xdc,
  0xbb, 0x3c, 0x2b, 0x46, 0x38, 0x4d, 0x02, 0x2b, 0x4d, 0xf7, 0x21, 0xf4,
  0xb6, 0x31, 0xb2, 0x07, 0x02, 0x49, 0x25, 0x1f, 0xc6, 0xf0, 0xf2, 0xdf,
  0xc5, 0xaf, 0xef, 0xfc, 0x31, 0x4b, 0x05, 0xee, 0xa9, 0x0e, 0x03, 0x50,
  0x31, 0x46, 0xd6, 0x1d, 0xe2, 0x4d, 0xfb, 0x1a, 0x38, 0x4f, 0x50, 0xd6,
  0xb5, 0xde, 0x9b, 0x0c, 0xc0, 0xdd, 0x5a, 0xbd, 0x11, 0x0b, 0xe1, 0xe1,
  0xcd, 0x65, 0x66, 0x45, 0x51, 0x10, 0x27, 0x51, 0xce, 0x1a, 0x14, 0x29,
  0xfd, 0xdf, 0x3f, 0xaa, 0xc3, 0x6d, 0x1c, 0xba, 0x57, 0xf6, 0xde, 0xeb,
  0x11, 0xe0, 0xde, 0x4e, 0xdf, 0x0a, 0x3d, 0x59, 0xfe, 0xc7, 0xbf, 0xb7,
  0x07, 0x97, 0xf4, 0x36, 0xcc, 0xd3, 0x40, 0xd3, 0xf3, 0x4e, 0x28, 0x2c,
  0xb1, 0x29, 0xe7, 0x5f, 0x2f, 0xa4, 0xac, 0xac, 0xb9, 0x59, 0x24, 0x5e,
  0x04, 0xa8, 0xee, 0x1c, 0x0a, 0x31, 0xbf, 0xd8, 0xd3, 0x04, 0x09, 0x2b,
  0xd1, 0x6a, 0x61, 0xc2, 0x40, 0x1a, 0xe2, 0x14, 0x39, 0x07, 0xc6, 0xa0,
  0x0f, 0xd5, 0xec, 0xd0, 0xbf, 0xd6, 0xcf, 0x5d, 0x2b, 0x2c, 0x1d, 0xbd,
  0xf8, 0x54, 0x21, 0xdf, 0x3b, 0xc1, 0xd4, 0xc5, 0x2c, 0x35, 0xec, 0xd1,
  0xfe, 0x2d, 0xed, 0xd6, 0xa9, 0x17, 0x56, 0x24, 0x37, 0xd2, 0xd8, 0xea,
  0x38, 0xdf, 0x6f, 0x3a, 0xe3, 0xa3, 0x1a, 0x2c, 0x0a, 0xf8, 0x50, 0xb5,
  0xc8, 0x31, 0xae, 0x12, 0xf3, 0xbf, 0x01, 0x2d, 0x13, 0xa0, 0xea, 0x2b,
  0xd0, 0xe8, 0x33, 0x25, 0xf2, 0xed, 0x55, 0x53, 0xdf, 0x0c, 0xed, 0x36,
  0xf3, 0x1f, 0x25, 0xed, 0xb2, 0xba, 0x1b, 0xd7, 0xba, 0xe6, 0x42, 0x02,
  0x56, 0x5b, 0xbe, 0xaa, 0x41, 0xdf, 0x1f, 0x2b, 0x52, 0x16, 0x59, 0x21,
  0xae, 0xc4, 0xbc, 0x27, 0xac, 0x36, 0xe5, 0xd0, 0xca, 0xbf, 0xda, 0x2a,
  0x22, 0xfe, 0xb7, 0x1e, 0x11, 0x39, 0x1d, 0x1a, 0x00, 0x26, 0x06, 0xc4,
  0xe0, 0xeb, 0x0a, 0x2f, 0x08, 0x0e, 0xc0, 0xbc, 0xc6, 0x58, 0x53, 0xd7,
  0x41, 0xe5, 0xe5, 0x60, 0x09, 0x18, 0xca, 0x40, 0xf1, 0x35, 0xd5, 0xe6,
  0x14, 0x43, 0x44, 0x1f, 0xfc, 0x18, 0x3a, 0x0a, 0xde, 0x35, 0x4f, 0xf9,
  0xc2, 0x19, 0x37, 0x35, 0xdd, 0xcb, 0x31, 0xd2, 0x56, 0xd9, 0x01, 0x41,
  0xff, 0x2d, 0x4e, 0x2d, 0x01, 0x03, 0x0e, 0x13, 0x43, 0xf0, 0x26, 0x1f,
  0x3e, 0x5d, 0x09, 0x04, 0x3c, 0xa8, 0xff, 0x2b, 0xb1, 0xdd, 0x23, 0x1a,
  0x5f, 0x39, 0xdb, 0x08, 0xc6, 0xdf, 0xbf, 0x04, 0x10, 0xed, 0x0d, 0x45,
  0x23, 0xc9, 0x44, 0x0b, 0xdf, 0xc9, 0x05, 0x38, 0x4e, 0xf2, 0xb5, 0x44,
  0xef, 0xba, 0x56, 0xc8, 0xbd, 0x3f, 0x61, 0xf2, 0x1f, 0xbb, 0x11, 0xeb,
  0xbd, 0x1f, 0xed, 0xd7, 0xf8, 0x48, 0x1a, 0x08, 0xd6, 0x2f, 0x44, 0xc5,
  0xc0, 0xfe, 0xd9, 0x50, 0xf9, 0x09, 0xd0, 0x2d, 0x58, 0xe8, 0xb3, 0xf3,
  0x48, 0x22, 0x43, 0xe3, 0x1f, 0x37, 0x30, 0x36, 0xaa, 0xeb, 0x59, 0x3f,
  0x3c, 0x28, 0x9d, 0x64, 0x50, 0xaf, 0x3c, 0xf2, 0x3b, 0xae, 0xaa, 0x2d,
  0xea, 0x20, 0xf2, 0x1d, 0x2d, 0x2f, 0x0c, 0x0b, 0x30, 0xdf, 0xef, 0x13,
  0xb5, 0x5f, 0xda, 0x37, 0x33, 0xce, 0x11, 0x55, 0xcd, 0x57, 0xec, 0x4c,
  0xdf, 0x40, 0x42, 0xc9, 0xf4, 0xd0, 0x2c, 0xd1, 0xd4, 0x08, 0xb6, 0x48,
  0xe4, 0xf4, 0x52, 0x45, 0x0e, 0x9b, 0x36, 0x05, 0x13, 0xf0, 0xf0, 0x26,
  0xb6, 0x2a, 0x2e, 0x17, 0xba, 0x20, 0x4c, 0xb5, 0xbd, 0xf2, 0x0a, 0x3e,
  0xee, 0x28, 0x03, 0x37, 0x38, 0xea, 0x17, 0xf9, 0x22, 0x2f, 0x5c, 0xfe,
  0xb1, 0xb3, 0x29, 0x61, 0xf9, 0x2a, 0x6e, 0x0a, 0xbc, 0xe2, 0xec, 0x02,
  0x23, 0x1a, 0x41, 0xca, 0xdb, 0x00, 0xe5, 0x01, 0x19, 0x69, 0xff, 0xf2,
  0xd0, 0xed, 0xff, 0xa5, 0x1f, 0x2a, 0x03, 0xe6, 0x39, 0xf3, 0x11, 0x45,
  0x4d, 0xe5, 0xcf, 0x47, 0x5d, 0x9a, 0x1c, 0xce, 0xc8, 0x2e, 0xfd, 0x09,
  0x1e, 0xdb, 0x95, 0xe8, 0xa7, 0x44, 0xd9, 0x33, 0x1e, 0x37, 0xa3, 0x4a,
  0xd4, 0x6b, 0x65, 0xfa, 0x49, 0x29, 0x1f, 0x30, 0xae, 0x55, 0x66, 0xf3,
  0xbb, 0x30, 0xfc, 0xf1, 0x2e, 0xd9, 0x2b, 0x10, 0x2d, 0x3a, 0xe3, 0xf5,
  0x49, 0xe3, 0xdb, 0xe5, 0x64, 0x98, 0x93, 0xf3, 0x3f, 0x54, 0x14, 0x3d,
  0xec, 0x16, 0x05, 0xc9, 0xcb, 0x3a, 0x6d, 0x46, 0x3b, 0x3a, 0x35, 0xe7,
  0x9c, 0x6d, 0xf9, 0xfa, 0x15, 0x96, 0xef, 0x1b, 0x9b, 0x56, 0x04, 0x03,
  0x4a, 0xc5, 0x95, 0x35, 0x48, 0x24, 0x6b, 0x19, 0xf2, 0xf5, 0xb0, 0xbd,
  0xb1, 0x4f, 0x4f, 0xf0, 0x20, 0x26, 0xb0, 0xe0, 0x16, 0xef, 0x3d, 0x52,
  0x2f, 0x1d, 0xd1, 0x01, 0xfa, 0xd9, 0xd0, 0xaf, 0x32, 0x1b, 0xba, 0xaa,
  0x07, 0x2d, 0x4f, 0x2e, 0xa8, 0xdc, 0xe7, 0xbd, 0xe5, 0x05, 0xde, 0xb6,
  0x5d, 0x3f, 0xe0, 0x4b, 0xc7, 0xd1, 0xce, 0xd1, 0xed, 0xec, 0xc2, 0xcc,
  0xc8, 0xdf, 0xef, 0x1f, 0xb0, 0xaf, 0x3f, 0x23, 0x13, 0x25, 0x6b, 0xab,
  0x05, 0x33, 0x10, 0xd6, 0x3b, 0x15, 0x45, 0xa8, 0x2f, 0x11, 0xb3, 0x2e,
  0xf1, 0x69, 0x1b, 0x3d, 0xcf, 0x3a, 0x08, 0x00, 0xcc, 0xcd, 0x2d, 0x21,
  0x12, 0x01, 0xd9, 0x4d, 0xd5, 0x4f, 0xc6, 0x19, 0xd1, 0xcd, 0x4a, 0x08,
  0x0e, 0x52, 0xe1, 0xd4, 0xd4, 0xbb, 0xfa, 0x17, 0xfa, 0x6d, 0x00, 0xc1,
  0x13, 0xd9, 0x07, 0xc2, 0xcc, 0x5e, 0xe3, 0xad, 0x2b, 0x24, 0xdd, 0x30,
  0x22, 0x75, 0xc6, 0x2f, 0x30, 0xc0, 0x98, 0xfd, 0x16, 0x3e, 0xca, 0xb8,
  0xee, 0x2a, 0x32, 0x32, 0x31, 0x23, 0xf4, 0x2e, 0x27, 0x3c, 0xa2, 0xe7,
  0xa2, 0xf1, 0xee, 0xbb, 0xdb, 0xbc, 0x28, 0x33, 0xdd, 0x21, 0x10, 0x37,
  0xd4, 0xf2, 0xb3, 0x08, 0xe5, 0x5d, 0x3a, 0xab, 0xe6, 0xf2, 0x35, 0xc9,
  0x03, 0x2b, 0x42, 0xd1, 0x4f, 0xfc, 0xd2, 0xbd, 0x35, 0x17, 0x45, 0xe2,
  0xba, 0x06, 0x09, 0x31, 0x2c, 0x75, 0xd1, 0xbf, 0x1a, 0xbe, 0x9e, 0xff,
  0xb7, 0xd0, 0x31, 0xcf, 0xf3, 0xa3, 0xa7, 0x14, 0xde, 0x13, 0x24, 0xfa,
  0xda, 0x3b, 0xe1, 0x3b, 0x07, 0x02, 0xd4, 0xf9, 0xc2, 0x46, 0xf3, 0xb7,
  0xef, 0x07, 0x64, 0x98, 0x07, 0xc9, 0xb1, 0x16, 0x37, 0x2f, 0xfb, 0x2d,
  0xcd, 0x22, 0x3e, 0xb8, 0xf5, 0x5f, 0x4c, 0xc8, 0x05, 0xe4, 0x3e, 0x3f,
  0xfa, 0x1a, 0xb7, 0xa5, 0x33, 0x36, 0x92, 0xdd, 0x36, 0x31, 0x0b, 0x2f,
  0x50, 0x0e, 0xde, 0x31, 0x38, 0x6b, 0x0b, 0x24, 0xec, 0xbb, 0xa8, 0xaf,
  0xba, 0x6f, 0xfc, 0xe3, 0xd6, 0x19, 0x0a, 0x41, 0xaa, 0x3e, 0x2f, 0x2c,
  0xc4, 0x1d, 0x2c, 0xe2, 0x09, 0x08, 0xbb, 0x46, 0x55, 0xbd, 0x16, 0x39,
  0xd1, 0xfe, 0x39, 0xb9, 0x2f, 0xc1, 0xe7, 0x49, 0x0b, 0x0b, 0x42, 0xf7,
  0xad, 0x0e, 0xca, 0xc2, 0xe8, 0x6e, 0xcb, 0xaa, 0x35, 0x50, 0x46, 0x1e,
  0x18, 0xe3, 0xe4, 0x06, 0xfe, 0xb5, 0xf8, 0xbd, 0xa8, 0x27, 0xe2, 0xec,
  0x1d, 0xf7, 0x2e, 0x4d, 0xa4, 0x73, 0xd0, 0xaf, 0xe3, 0xc9, 0x10, 0x49,
  0x12, 0x51, 0x4c, 0xb1, 0x54, 0x01, 0xe9, 0x31, 0x51, 0x5a, 0xec, 0xa3,
  0xf1, 0xbc, 0x01, 0x1e, 0x16, 0x09, 0x45, 0xa6, 0x0d, 0x22, 0x36, 0xf6,
  0xe5, 0x44, 0xd5, 0x53, 0x20, 0xea, 0x0a, 0x0a, 0x1e, 0x64, 0xf3, 0x53,
  0xdf, 0xb4, 0x3e, 0x23, 0xaa, 0x60, 0x5f, 0x3e, 0xfe, 0xd0, 0x18, 0xd3,
  0x42, 0xee, 0xcb, 0xdf, 0x02, 0x2f, 0xb4, 0xc5, 0x09, 0xf0, 0xbc, 0xa4,
  0x0b, 0xe5, 0xc1, 0x1b, 0xca, 0xed, 0xb8, 0x58, 0x39, 0xa0, 0x47, 0xff,
  0x02, 0x2a, 0xe3, 0x30, 0xd7, 0x35, 0x2f, 0x48, 0xb6, 0x6c, 0x3b, 0x05,
  0x0f, 0x0c, 0x2d, 0xab, 0xc7, 0xd3, 0x3b, 0x00, 0xfd, 0x26, 0x27, 0xdd,
  0xc6, 0xbc, 0xcb, 0x51, 0xb7, 0x96, 0xef, 0xf8, 0xff, 0x3a, 0x2f, 0x51,
  0xb7, 0xdd, 0xfa, 0x0d, 0xcd, 0xf0, 0x20, 0xd6, 0xc4, 0x28, 0xaa, 0x02,
  0xbc, 0x1b, 0xf0, 0x06, 0xdc, 0xbc, 0x13, 0x30, 0xa0, 0x44, 0x6a, 0xb8,
  0x11, 0x1f, 0xfc, 0x3c, 0xe3, 0x3e, 0xf4, 0x0a, 0xb4, 0xb2, 0x25, 0x4d,
  0xdc, 0x18, 0x41, 0xaf, 0x07, 0xf9, 0x1d, 0xdd, 0xdc, 0xf9, 0x14, 0xa5,
  0x31, 0x0b, 0xc8, 0x40, 0x42, 0x20, 0xeb, 0x1f, 0xc9, 0xf3, 0x0c, 0xe8,
  0xb8, 0x2a, 0xc5, 0xeb, 0x12, 0xa0, 0xfa, 0x5d, 0xda, 0xde, 0x62, 0xac,
  0xac, 0xca, 0xe6, 0x48, 0xbd, 0x5e, 0x43, 0x05, 0x3c, 0x38, 0x36, 0xd7,
  0xd6, 0x2c, 0x24, 0x4c, 0x51, 0xe2, 0xb1, 0xb0, 0x3f, 0x41, 0xf1, 0x16,
  0xad, 0xc7, 0xc8, 0xc9, 0xb1, 0xe2, 0x27, 0x37, 0x2b, 0xd6, 0x93, 0xc4,
  0x38, 0x55, 0x61, 0x1f, 0x02, 0x06, 0xe2, 0x57, 0xc8, 0x6d, 0xf6, 0x00,
  0x18, 0x9b, 0x12, 0x54, 0x0e, 0xea, 0xd0, 0xf8, 0x13, 0xb8, 0xfa, 0x47,
  0xdf, 0xdb, 0xd1, 0xc5, 0xa5, 0xff, 0x0f, 0xd9, 0x0b, 0xd2, 0xe2, 0xbf,
  0x09, 0xda, 0x2d, 0xb7, 0xb8, 0xc4, 0xb4, 0x4d, 0x20, 0x2c, 0x36, 0x01,
  0xe1, 0x41, 0xe3, 0x0d, 0xb3, 0xf3, 0xf0, 0x40, 0x4b, 0xe3, 0x03, 0x1c,
  0xbe, 0x49, 0xda, 0x25, 0x11, 0x46, 0xf0, 0x5b, 0xc5, 0xff, 0x45, 0xc3,
  0x5b, 0xbd, 0x34, 0x2c, 0xcc, 0x2f, 0x78, 0x54, 0x37, 0x41, 0x06, 0xd2,
  0x37, 0xe3, 0x2e, 0xc3, 0xfd, 0x07, 0x1c, 0x03, 0x2c, 0x0f, 0x78, 0x5d,
  0xc2, 0x31, 0xe6, 0xc3, 0xf8, 0xc4, 0x69, 0x35, 0xbe, 0x4f, 0xe3, 0x44,
  0x58, 0x6a, 0x6c, 0xf6, 0x01, 0xda, 0xed, 0x61, 0xac, 0x5f, 0x31, 0xf1,
  0xda, 0x4d, 0x42, 0x06, 0xe1, 0x63, 0xc6, 0x53, 0x53, 0x24, 0xc7, 0xf1,
  0x34, 0x22, 0xf5, 0x08, 0xd7, 0xd5, 0x96, 0xd3, 0xef, 0x13, 0x4f, 0x2e,
  0xd4, 0xb4, 0x52, 0xe5, 0xb5, 0xd1, 0x40, 0x4f, 0x39, 0xfa, 0xb3, 0x3a,
  0x9b, 0x5f, 0x59, 0xe0, 0xc7, 0x31, 0x50, 0x2e, 0xb7, 0xf7, 0xc8, 0x5b,
  0xf8, 0x12, 0xd6, 0x44, 0xf0, 0xd9, 0xe0, 0xf8, 0x38, 0xa8, 0x0e, 0x47,
  0xeb, 0xdb, 0x2f, 0xd1, 0x47, 0xb5, 0x11, 0xe6, 0x22, 0xf8, 0x75, 0x44,
  0xd7, 0x33, 0x51, 0x4c, 0x0e, 0xe7, 0x30, 0x35, 0xcf, 0xcc, 0x2d, 0x55,
  0xa8, 0xc0, 0x43, 0x42, 0x20, 0xa5, 0x04, 0x4e, 0xc3, 0xc6, 0x16, 0x03,
  0xcf, 0xf1, 0xb0, 0x49, 0x03, 0x4c, 0x08, 0xd2, 0x65, 0x52, 0x53, 0xe2,
  0x2b, 0xd5, 0x24, 0x4b, 0x0b, 0x0c, 0x36, 0xec, 0xea, 0x3d, 0xc8, 0xde,
  0x41, 0xb7, 0xf1, 0x17, 0x01, 0x77, 0xc4, 0x34, 0xd7, 0x37, 0xff, 0x12,
  0xfb, 0x3b, 0x4a, 0xf8, 0xe3, 0x17, 0x1e, 0xb5, 0x2b, 0xe2, 0x48, 0x1e,
  0x31, 0xba, 0x05, 0x44, 0xab, 0x44, 0x05, 0xb4, 0xba, 0xe6, 0xc8, 0xd2,
  0x01, 0xf3, 0x01, 0xba, 0x36, 0x22, 0x1e, 0xb0, 0x46, 0xef, 0x10, 0x19,
  0x1d, 0xdc, 0xb3, 0x31, 0x39, 0xf1, 0x69, 0xa7, 0x3a, 0x1f, 0x31, 0x25,
  0xba, 0x13, 0xe2, 0xaf, 0xf0, 0xbf, 0x9b, 0xc8, 0xc3, 0xdf, 0x0d, 0xac,
  0xbf, 0x4d, 0x02, 0xf2, 0x03, 0xcb, 0xc5, 0x04, 0xe4, 0x31, 0x27, 0x5c,
  0x36, 0x23, 0xc1, 0xd8, 0x64, 0x9a, 0xee, 0x04, 0xdc, 0xf0, 0xeb, 0xa5,
  0x1f, 0x48, 0x3e, 0x0b, 0x2f, 0x16, 0x0e, 0xc3, 0xd2, 0xc1, 0xad, 0xf9,
  0x1d, 0x16, 0x5c, 0x3a, 0xcb, 0xf4, 0x1d, 0x3e, 0xf5, 0xcf, 0x39, 0x30,
  0x11, 0x39, 0x1e, 0x41, 0xfc, 0x52, 0xd5, 0x5d, 0xf8, 0x0d, 0xff, 0x49,
  0x15, 0x6c, 0x25, 0x5c, 0xf4, 0x15, 0x51, 0xee, 0x18, 0xf5, 0x73, 0xe1,
  0x65, 0x08, 0xc0, 0xfc, 0xff, 0x78, 0x06, 0x2f, 0x3c, 0x02, 0x0f, 0xf6,
  0xc0, 0x2e, 0x09, 0x1a, 0x1d, 0xc2, 0xf9, 0x0f, 0x42, 0x06, 0x27, 0x5c,
  0xdc, 0x4d, 0xa2, 0x05, 0x1b, 0x64, 0xe0, 0x5e, 0x64, 0x36, 0x18, 0xad,
  0xa4, 0x67, 0x44, 0x0a, 0xb5, 0xd7, 0x26, 0x5d, 0xaa, 0x01, 0xcc, 0x4c,
  0x49, 0x02, 0xc1, 0xb5, 0x32, 0x01, 0xfa, 0x21, 0xdf, 0xe4, 0x2c, 0x46,
  0xd1, 0xe3, 0xf6, 0xc9, 0x55, 0xcd, 0x06, 0x08, 0x21, 0xd7, 0x2d, 0xaf,
  0xd0, 0xba, 0x11, 0xf9, 0x14, 0xe4, 0x62, 0x2a, 0xdd, 0x4f, 0xc0, 0x4a,
  0xc9, 0x1d, 0xec, 0x51, 0xf6, 0x4e, 0xb4, 0x1c, 0xdf, 0x6b, 0xe4, 0x04,
  0x5a, 0xd0, 0xfb, 0xd0, 0x56, 0x4c, 0xde, 0x2d, 0xb8, 0x11, 0xd8, 0x11,
  0x15, 0x28, 0xd7, 0x24, 0x5f, 0x43, 0xc8, 0x00, 0xe3, 0xeb, 0x26, 0xa3,
  0xbf, 0xaa, 0x34, 0xdb, 0xab, 0xe1, 0xdc, 0xee, 0xe3, 0x3b, 0xf9, 0x12,
  0xcf, 0xc6, 0x46, 0xb6, 0xf5, 0xf9, 0x13, 0xee, 0x4a, 0xfd, 0x50, 0xe7,
  0x04, 0x2c, 0xf1, 0x61, 0xae, 0xc5, 0x60, 0xdf, 0x5c, 0xc6, 0x3b, 0x13,
  0xed, 0x53, 0x77, 0x3f, 0x45, 0xcc, 0x25, 0x3e, 0xd6, 0xdb, 0x33, 0xf1,
  0xda, 0x36, 0xee, 0xb2, 0xd3, 0x0e, 0xc7, 0x3d, 0x1d, 0xe1, 0xe0, 0x45,
  0xdc, 0x10, 0xff, 0x5b, 0x18, 0xc6, 0xa8, 0x0c, 0xa7, 0x14, 0x27, 0x57,
  0x6b, 0x0c, 0x19, 0x51, 0xcc, 0x69, 0x75, 0xbe, 0xba, 0xe3, 0xb5, 0xff,
  0xc2, 0x04, 0x52, 0xf1, 0x16, 0xa6, 0x16, 0x17, 0xea, 0x13, 0x24, 0x17,
  0xc4, 0x2f, 0x4f, 0x60, 0x52, 0x57, 0x43, 0xa8, 0xf5, 0x1d, 0x15, 0xfc,
  0x1e, 0x36, 0x31, 0xd3, 0x18, 0x07, 0x04, 0x2e, 0x08, 0x5f, 0x2e, 0x57,
  0xbd, 0x12, 0x28, 0x3f, 0xd2, 0x74, 0x73, 0xc5, 0xc4, 0xd9, 0xeb, 0x1d,
  0x2a, 0x08, 0x61, 0xff, 0xf4, 0x34, 0x9a, 0xd8, 0x44, 0x37, 0xe4, 0xb4,
  0xd3, 0xce, 0xc5, 0x0d, 0xfa, 0x2a, 0x09, 0xdd, 0x1a, 0xaa, 0x39, 0x20,
  0x44, 0xdb, 0x49, 0xda, 0x55, 0xa7, 0x0f, 0x24, 0xb3, 0x49, 0x50, 0xde,
  0x20, 0xe8, 0x4f, 0x56, 0xee, 0xe5, 0xc5, 0x2c, 0xeb, 0xfc, 0x01, 0x0b,
  0xde, 0x5a, 0x3b, 0x47, 0x2c, 0xa9, 0xd9, 0x0f, 0x05, 0x17, 0xdf, 0xc0,
  0x0d, 0x3f, 0x46, 0x41, 0x2d, 0x4a, 0x07, 0x0a, 0x0a, 0x25, 0x40, 0x3a,
  0x51, 0x6e, 0x4d, 0x58, 0x30, 0xc8, 0xe1, 0x43, 0x2f, 0xf3, 0x52, 0x0d,
  0x13, 0xfe, 0x2e, 0x29, 0xc7, 0x33, 0xf3, 0x59, 0xe1, 0xd8, 0xb8, 0x1d,
  0xc3, 0x24, 0x04, 0xf9, 0xf4, 0x36, 0x16, 0xdf, 0xfb, 0xd8, 0xd8, 0x64,
  0xfa, 0xa8, 0xa5, 0x33, 0xd1, 0x6d, 0xea, 0x2d, 0x3c, 0xea, 0xf7, 0xf1,
  0xb6, 0x34, 0x34, 0x3e, 0x09, 0xcc, 0xdc, 0xc2, 0x0b, 0x63, 0x2e, 0x47,
  0x23, 0x27, 0x08, 0x64, 0xd9, 0x4c, 0xbf, 0x38, 0x06, 0x43, 0xc2, 0x2c,
  0xaf, 0x01, 0x71, 0x04, 0x4a, 0xd4, 0x20, 0x54, 0x2b, 0x3e, 0xe8, 0xed,
  0xd1, 0xcf, 0x4b, 0x5e, 0xa1, 0x5c, 0xc3, 0xd5, 0x1b, 0x3f, 0xe6, 0x64,
  0x3b, 0x14, 0xd0, 0x16, 0xa4, 0xe3, 0x22, 0x18, 0xc4, 0x19, 0xde, 0x53,
  0xe6, 0xfb, 0xd1, 0x0f, 0xb3, 0x45, 0xae, 0xd9, 0xc7, 0x2b, 0xfe, 0xe7,
  0x1d, 0xd6, 0xfd, 0xee, 0x3a, 0x61, 0xe1, 0xae, 0xe9, 0xd4, 0x9a, 0x5d,
  0x0e, 0x4b, 0x64, 0xa7, 0xcd, 0x0c, 0xd6, 0x2b, 0x13, 0x63, 0xcf, 0xd6,
  0xb5, 0xc6, 0xef, 0x11, 0x1a, 0x6e, 0x4d, 0x59, 0x03, 0xb0, 0xb1, 0x01,
  0xd6, 0x20, 0x6f, 0x3c, 0x08, 0x02, 0xae, 0x2f, 0x42, 0x6e, 0x75, 0xe5,
  0xca, 0xbc, 0xf7, 0x2b, 0x1b, 0xc1, 0xfd, 0xa3, 0x4a, 0xfa, 0xa1, 0xf8,
  0xd6, 0x74, 0x70, 0x52, 0x26, 0xcd, 0x05, 0x3e, 0xd5, 0x5c, 0x68, 0xcb,
  0x39, 0xf4, 0x45, 0xfa, 0xe6, 0x6b, 0xff, 0x2b, 0xdb, 0x01, 0xc7, 0xd0,
  0xde, 0xcc, 0xe0, 0xa3, 0x5a, 0xf5, 0x0d, 0xfe, 0xbb, 0x1c, 0x2a, 0xf7,
  0xd3, 0xfe, 0x29, 0xc2, 0xd3, 0x0b, 0x67, 0x4b, 0x5d, 0xf9, 0x10, 0x35,
  0xf9, 0xf4, 0xf6, 0x15, 0x35, 0xc0, 0x39, 0xac, 0x3b, 0x61, 0x47, 0xbe,
  0xec, 0xcf, 0x15, 0x2e, 0xd3, 0xf1, 0x1a, 0xac, 0x6a, 0xca, 0x44, 0x25,
  0xc6, 0x02, 0x20, 0x35, 0x1f, 0xde, 0xd3, 0xf2, 0xb0, 0x2d, 0x08, 0xa2,
  0x28, 0x2d, 0xa5, 0x32, 0x1b, 0x6b, 0x27, 0x0b, 0x29, 0x18, 0x47, 0xd7,
  0xbd, 0x5a, 0x03, 0x3a, 0xd7, 0x38, 0xef, 0xae, 0x4e, 0x3d, 0xf6, 0xaa,
  0x17, 0x49, 0xb1, 0x07, 0xf1, 0xe2, 0xd8, 0xf4, 0xe3, 0xa7, 0x19, 0x22,
  0xe2, 0x17, 0x3e, 0xcc, 0xd8, 0xc0, 0x99, 0x3c, 0xa9, 0x33, 0x45, 0xdd,
  0xc6, 0x4e, 0x92, 0x33, 0xb6, 0x1e, 0x41, 0xcc, 0x3b, 0x41, 0x35, 0x34,
  0xbf, 0xe2, 0x56, 0x39, 0x04, 0x9c, 0xdb, 0xaf, 0xb6, 0x25, 0xf4, 0xdc,
  0xbe, 0x03, 0xc4, 0x22, 0x28, 0xdf, 0x2d, 0xb9, 0xf4, 0xee, 0xf1, 0x59,
  0xc5, 0x19, 0x0a, 0x16, 0xc5, 0x2f, 0xa9, 0xc9, 0x52, 0x2a, 0x11, 0x05,
  0x12, 0xa9, 0x19, 0xe3, 0xfd, 0x52, 0x3f, 0x06, 0xef, 0x50, 0x93, 0xfb,
  0x2e, 0x3d, 0xdc, 0xc4, 0x47, 0x43, 0xdb, 0xe4, 0x99, 0x61, 0x41, 0x16,
  0xb3, 0x31, 0x18, 0x10, 0xd9, 0x40, 0x3d, 0x09, 0xc7, 0xd4, 0x9e, 0x59,
  0x15, 0x6e, 0x79, 0x00, 0x4c, 0xe5, 0xf7, 0xbb, 0x9b, 0xd1, 0x45, 0xc5,
  0xc7, 0xb5, 0x2a, 0x45, 0x32, 0x26, 0x58, 0x24, 0xb3, 0x33, 0x3a, 0x48,
  0xe4, 0xea, 0x30, 0xce, 0x11, 0xd6, 0xab, 0xba, 0xf2, 0x77, 0xca, 0xe7,
  0xc0, 0x15, 0xd9, 0xf3, 0x30, 0x5f, 0xfe, 0x54, 0xe7, 0xa4, 0xf5, 0x1a,
  0xf0, 0x17, 0x15, 0x20, 0x4b, 0xca, 0x2d, 0x2c, 0xb0, 0xcf, 0xdd, 0xe6,
  0x5c, 0xc5, 0xf1, 0x5b, 0x50, 0xfa, 0x6f, 0xd2, 0x5c, 0x15, 0xdf, 0x03,
  0xb5, 0x1c, 0x6c, 0xc4, 0xc2, 0xeb, 0xf2, 0xc5, 0xa9, 0x12, 0x43, 0x4f,
  0x62, 0x0e, 0xa1, 0x0a, 0xc9, 0x1c, 0xc6, 0x04, 0x25, 0xf9, 0x04, 0x56,
  0x9c, 0xfb, 0x6a, 0xd4, 0x4d, 0xe5, 0x40, 0xab, 0x49, 0x55, 0x4a, 0xe9,
  0x10, 0x2d, 0xbb, 0x31, 0xf2, 0x29, 0x4b, 0x15, 0x45, 0x9e, 0xf9, 0x16,
  0x1f, 0x5e, 0xc4, 0xdc, 0x33, 0x28, 0xbe, 0x18, 0xdb, 0xec, 0x12, 0xd4,
  0xe1, 0x1c, 0x24, 0x05, 0x22, 0x7d, 0xd2, 0x39, 0x26, 0xeb, 0xad, 0x3a,
  0x99, 0xe2, 0x24, 0x1d, 0x47, 0x3b, 0x95, 0x33, 0xb3, 0xd0, 0x1f, 0xbd,
  0xd1, 0xd5, 0x0f, 0x0b, 0x9f, 0x50, 0x52, 0x06, 0xd6, 0x93, 0x26, 0x0e,
  0xca, 0xfd, 0x41, 0x4e, 0x40, 0x35, 0xd2, 0x4f, 0xff, 0x16, 0x52, 0xc9,
  0xc4, 0x4a, 0x0a, 0xaf, 0xbc, 0x5b, 0xe0, 0xdf, 0x20, 0x28, 0xc4, 0x15,
  0x19, 0x43, 0x1f, 0xb1, 0x01, 0x34, 0xd7, 0xf4, 0xda, 0xdb, 0x57, 0xac,
  0x28, 0xec, 0xd4, 0x2a, 0x23, 0xec, 0x51, 0xb9, 0x48, 0x49, 0xbf, 0x14,
  0xa3, 0x70, 0x0d, 0xc1, 0xb4, 0x41, 0xc1, 0x00, 0x3b, 0xd3, 0xca, 0xd9,
  0xf3, 0x49, 0x9c, 0x2e, 0x23, 0x44, 0xbe, 0x31, 0x22, 0x41, 0x22, 0x54,
  0xa9, 0x09, 0x16, 0xef, 0xf0, 0xeb, 0xc0, 0xe6, 0x25, 0x48, 0xf0, 0xfb,
  0x1b, 0x33, 0xb7, 0x59, 0x1c, 0x09, 0x0b, 0xbf, 0xfc, 0x01, 0xbd, 0x5e,
  0xec, 0x23, 0xf1, 0x07, 0x09, 0x2b, 0xae, 0xed, 0x48, 0xe8, 0xeb, 0x1a,
  0x4c, 0x9d, 0xa9, 0x0f, 0x1a, 0x23, 0x3a, 0xea, 0xc1, 0xeb, 0xba, 0xff,
  0xe5, 0xd8, 0x55, 0xd7, 0x03, 0xb7, 0xc7, 0x41, 0x49, 0xfc, 0x56, 0xe9,
  0x2a, 0x08, 0x9d, 0x23, 0x33, 0xd2, 0x0d, 0x9d, 0xdd, 0x1d, 0x30, 0x65,
  0xf7, 0x7f, 0x24, 0xa6, 0x60, 0x9b, 0x3d, 0xce, 0x25, 0x4e, 0x25, 0xa8,
  0x2f, 0xf6, 0x47, 0xda, 0xd8, 0x51, 0xd4, 0xe6, 0xd6, 0xde, 0x18, 0x4e,
  0xd6, 0x54, 0x37, 0xcc, 0xf1, 0xfc, 0xe6, 0x2a, 0xf0, 0x44, 0x75, 0x32,
  0xe6, 0xaf, 0xbd, 0x5b, 0x13, 0xe7, 0x4c, 0x4b, 0x39, 0xe6, 0xaa, 0xc9,
  0x17, 0x25, 0xd4, 0x3c, 0xdf, 0x17, 0xcc, 0x27, 0xcd, 0x08, 0x47, 0xe4,
  0x3a, 0xfc, 0xfc, 0x4f, 0x08, 0x13, 0x6b, 0x49, 0x47, 0xe3, 0x34, 0xb8,
  0xe6, 0x22, 0x13, 0xbf, 0x1b, 0xd0, 0x07, 0x41, 0xcf, 0x3c, 0xd5, 0xe3,
  0x48, 0xae, 0x46, 0xe4, 0x1e, 0x37, 0x43, 0xa8, 0xdf, 0x48, 0xba, 0xd3,
  0x27, 0x0e, 0xdb, 0xd8, 0x4e, 0x31, 0xf7, 0xf3, 0xa4, 0x52, 0x69, 0xbd,
  0x07, 0xc1, 0xf5, 0x2f, 0x4c, 0x42, 0x53, 0x52, 0xed, 0x8e, 0x9b, 0x5f,
  0xcb, 0xe5, 0x0d, 0xcd, 0x3f, 0x06, 0x3d, 0xf4, 0x34, 0xca, 0x51, 0x03,
  0xe1, 0xd7, 0xe6, 0xe5, 0x3f, 0xd2, 0x36, 0x0a, 0x2c, 0x9a, 0x34, 0xf4,
  0xbc, 0x62, 0xcd, 0x08, 0xb5, 0x19, 0xfe, 0x3f, 0x21, 0xed, 0xbf, 0x2c,
  0xea, 0xb1, 0x99, 0xf8, 0x20, 0x34, 0x21, 0x57, 0xc7, 0x1e, 0xe3, 0xd1,
  0x04, 0x41, 0xe8, 0xc9, 0xfb, 0xdb, 0xc3, 0xdc, 0x4f, 0xe6, 0xc2, 0x14,
  0xfd, 0x68, 0x69, 0xab, 0x35, 0xff, 0x44, 0x5e, 0x5c, 0x37, 0x66, 0x36,
  0x3e, 0x5c, 0xdc, 0x23, 0xb7, 0xc6, 0x0e, 0xdf, 0x08, 0x18, 0xda, 0x08,
  0xc6, 0x6f, 0x22, 0xda, 0x3d, 0x29, 0xe8, 0x5a, 0xde, 0xfe, 0x45, 0xed,
  0x32, 0xb1, 0x21, 0xd8, 0xdc, 0xd3, 0xd1, 0xdd, 0x6a, 0xaf, 0x19, 0x69,
  0xea, 0x50, 0x48, 0x3b, 0x61, 0x9f, 0x20, 0x4e, 0x15, 0x58, 0xd6, 0xf9,
  0xcc, 0x3d, 0x0d, 0xfd, 0xaf, 0x6a, 0xed, 0x33, 0x3f, 0x46, 0xe6, 0x33,
  0xda, 0x35, 0x0a, 0xb8, 0xe2, 0xea, 0xcb, 0xdc, 0xec, 0xe7, 0xc4, 0xd5,
  0x59, 0x9e, 0xc8, 0xec, 0xf0, 0x15, 0x10, 0x36, 0x07, 0xf5, 0xc3, 0x57,
  0xbf, 0x03, 0x65, 0x10, 0x71, 0x40, 0x1d, 0xc5, 0xbe, 0x10, 0xdb, 0x1b,
  0xde, 0xee, 0xd7, 0xf5, 0xf3, 0xed, 0xed, 0x45, 0x67, 0xd9, 0xf6, 0x02,
  0xc7, 0x0c, 0x6e, 0x3a, 0x49, 0xa9, 0xc9, 0x58, 0xdc, 0x6d, 0xc8, 0x63,
  0x26, 0x35, 0x05, 0xf2, 0xae, 0x03, 0xc8, 0x05, 0xc3, 0x9f, 0x0a, 0xf4,
  0x01, 0x3a, 0x75, 0x4f, 0x58, 0x0e, 0x34, 0x52, 0xe8, 0xc2, 0xc9, 0xe0,
  0x02, 0xb6, 0x1f, 0x3b, 0xb6, 0x68, 0x4e, 0x32, 0x61, 0x07, 0x36, 0x4e,
  0xcf, 0x5e, 0xcc, 0x17, 0xdc, 0xfe, 0x47, 0x51, 0xd8, 0x33, 0xe8, 0x17,
  0x0a, 0x54, 0xd5, 0xe2, 0xc5, 0x1f, 0x54, 0x16, 0xf9, 0xfd, 0x25, 0x35,
  0xb2, 0x13, 0xe0, 0xc7, 0x1c, 0xb5, 0xb2, 0xdd, 0xca, 0xc2, 0x74, 0xe8,
  0xbc, 0x17, 0x02, 0x09, 0x36, 0x74, 0xd4, 0x51, 0x3c, 0xf2, 0x1d, 0x60,
  0x4d, 0xda, 0x75, 0xb6, 0x3b, 0xf4, 0x31, 0x4e, 0x3c, 0x46, 0x74, 0xfd,
  0x68, 0x55, 0x0a, 0xee, 0xb5, 0xfe, 0x54, 0x15, 0xe1, 0xa0, 0xea, 0x23,
  0xcb, 0xf3, 0x63, 0xfe, 0x6d, 0xd1, 0xbd, 0x20, 0xdf, 0x15, 0x67, 0xe2,
  0x5c, 0x12, 0x13, 0x0c, 0xb6, 0x4c, 0x5f, 0xc9, 0xe8, 0xc2, 0x0e, 0xd6,
  0xd1, 0xf8, 0x45, 0x29, 0x3d, 0xfc, 0xbb, 0xf2, 0x37, 0x7b, 0x18, 0x5d,
  0xdb, 0x04, 0xf1, 0x65, 0x5c, 0x72, 0x6a, 0x63, 0xc9, 0xbb, 0xc4, 0xfa,
  0xdd, 0x75, 0xeb, 0x4b, 0xcf, 0xb8, 0xa1, 0x2c, 0x48, 0x50, 0xda, 0x5a,
  0x2e, 0x15, 0x20, 0xe4, 0x13, 0xfe, 0x32, 0x4e, 0xe3, 0xaf, 0x27, 0x55,
  0xad, 0x4e, 0x64, 0xae, 0x09, 0x27, 0xff, 0x54, 0x3f, 0x67, 0x59, 0x29,
  0xef, 0x46, 0x31, 0x00, 0x53, 0xdf, 0x60, 0xfd, 0x3b, 0x52, 0xee, 0xbe,
  0x3c, 0xf3, 0x45, 0x47, 0x02, 0xdb, 0xa6, 0xbc, 0x42, 0x19, 0xf2, 0x3b,
  0x30, 0xe1, 0x39, 0xf3, 0xcf, 0x02, 0x1d, 0xf7, 0x53, 0x19, 0xec, 0xbe,
  0x45, 0x5c, 0xc3, 0x46, 0x0d, 0x17, 0x22, 0xb8, 0xb0, 0xde, 0xee, 0xc2,
  0x21, 0x43, 0xb4, 0x4a, 0x51, 0x10, 0x58, 0x15, 0x4d, 0xe8, 0x45, 0x57,
  0x0e, 0x24, 0x62, 0x1e, 0x01, 0x4e, 0x42, 0x54, 0x3f, 0x34, 0xf2, 0x39,
  0xdb, 0xc4, 0xf3, 0x40, 0xc5, 0x0f, 0x5e, 0x1a, 0xc0, 0xa9, 0x9a, 0x34,
  0xd4, 0x6d, 0x51, 0x28, 0xc6, 0xa4, 0xac, 0x43, 0xda, 0x58, 0x35, 0xc0,
  0xc5, 0xd4, 0x0e, 0xbd, 0xcf, 0x50, 0xd3, 0xb7, 0x5c, 0xf0, 0x21, 0xdc,
  0x38, 0x3c, 0x56, 0xaf, 0x13, 0xbd, 0x32, 0xe5, 0x4b, 0x7f, 0xe0, 0xc9,
  0x06, 0xdb, 0xed, 0x66, 0x45, 0xce, 0x44, 0xe2, 0x03, 0xc2, 0x52, 0x45,
  0xaf, 0xe2, 0x41, 0xcb, 0x43, 0x01, 0xc2, 0x65, 0xe6, 0x29, 0xee, 0x50,
  0x1d, 0xa9, 0xcd, 0x3a, 0xb0, 0x32, 0x01, 0x09, 0xcf, 0x56, 0xba, 0xd8,
  0x38, 0x1e, 0x54, 0x0e, 0xd8, 0xdd, 0x03, 0xb6, 0xd8, 0xe2, 0xd0, 0x5f,
  0x2a, 0xff, 0x41, 0x43, 0xab, 0x2e, 0x32, 0xfd, 0xca, 0xc9, 0x2f, 0x45,
  0x07, 0x41, 0x15, 0xde, 0xee, 0xc9, 0xbd, 0xe1, 0x18, 0xfb, 0xfc, 0xc7,
  0x2d, 0x31, 0x41, 0xb1, 0x1e, 0xe7, 0x52, 0xda, 0xc9, 0xc1, 0xb8, 0x2d,
  0x09, 0x5a, 0xea, 0x0d, 0x67, 0xd4, 0xbb, 0xd4, 0x1c, 0xdd, 0xdf, 0x1a,
  0x42, 0x1f, 0x38, 0xf4, 0x35, 0x7b, 0x52, 0xf8, 0xdb, 0xd1, 0xab, 0xfb,
  0x0d, 0x0a, 0x28, 0x20, 0x02, 0x3c, 0x3b, 0x43, 0x14, 0x67, 0xbf, 0x2d,
  0xc9, 0x1a, 0xef, 0x10, 0x47, 0x69, 0x01, 0x09, 0x34, 0xc5, 0x17, 0xce,
  0x5d, 0x33, 0x0c, 0xbf, 0x68, 0x44, 0x07, 0xb0, 0xd5, 0xca, 0x2f, 0x1c,
  0x60, 0xb5, 0xe3, 0x44, 0x22, 0xff, 0x54, 0x3d, 0x1d, 0xdf, 0xfe, 0xae,
  0x33, 0xfe, 0x0c, 0x0f, 0xce, 0x2b, 0xef, 0xe8, 0x07, 0x6b, 0x78, 0x09,
  0xe0, 0xea, 0xd8, 0xc2, 0xc3, 0x54, 0xd9, 0xe7, 0x5c, 0xf2, 0xdb, 0xd0,
  0xd6, 0x19, 0x3f, 0x5e, 0x43, 0x54, 0x16, 0xcc, 0xdc, 0x18, 0x1d, 0xd6,
  0x53, 0x4b, 0x2f, 0x62, 0xb6, 0xe0, 0x18, 0xbd, 0x68, 0xa2, 0x47, 0x64,
  0x2c, 0x3b, 0x27, 0xe7, 0xba, 0x0d, 0x1d, 0x1e, 0xd8, 0x68, 0xe2, 0xe3,
  0x27, 0xb1, 0x46, 0xd5, 0x17, 0x3b, 0xc7, 0xc3, 0x51, 0x50, 0xc8, 0x35,
  0x0e, 0x3d, 0x63, 0xeb, 0x5a, 0x3b, 0xf7, 0xd1, 0xe5, 0x0e, 0x0c, 0xea,
  0xb8, 0xa3, 0xd1, 0xd4, 0xe8, 0x7a, 0xcf, 0x0f, 0xbd, 0x2a, 0xbc, 0xc4,
  0x46, 0x23, 0x55, 0x2c, 0x21, 0xf0, 0xd8, 0x30, 0x29, 0x08, 0x60, 0x20,
  0x50, 0x4b, 0x13, 0x54, 0xde, 0x41, 0xda, 0xf3, 0x5e, 0xc0, 0xc6, 0xfe,
  0xb2, 0x1f, 0xc1, 0xae, 0xcd, 0x46, 0xf1, 0x0e, 0x25, 0x52, 0x13, 0xeb,
  0xf8, 0xb3, 0xd6, 0xd6, 0xc4, 0x08, 0xf7, 0xf5, 0xf3, 0x2c, 0x15, 0x4a,
  0xe1, 0x07, 0x28, 0xb9, 0x06, 0xb5, 0x56, 0x14, 0xd3, 0x07, 0x07, 0x04,
  0xce, 0x01, 0x58, 0x35, 0x56, 0xdf, 0x5b, 0x36, 0xb2, 0x35, 0xf2, 0x43,
  0xb0, 0xb2, 0xd1, 0x4a, 0xd1, 0x2b, 0x20, 0x5c, 0xab, 0x2a, 0x09, 0x48,
  0xbf, 0x4f, 0xa1, 0x1b, 0x2b, 0x15, 0x54, 0xc3, 0x15, 0xc6, 0x2a, 0x18,
  0x19, 0x5c, 0xe2, 0x45, 0xa1, 0xca, 0x13, 0xff, 0x18, 0xd0, 0xe0, 0xe7,
  0xd7, 0x43, 0xad, 0xb8, 0xc7, 0x17, 0xfd, 0xbe, 0xaf, 0x3e, 0x45, 0xb6,
  0xe5, 0x21, 0xf5, 0xed, 0x36, 0x42, 0x07, 0x24, 0xda, 0x27, 0xa7, 0xf6,
  0x2c, 0x30, 0xb7, 0xc9, 0xee, 0x20, 0x20, 0xf4, 0x2b, 0xe2, 0xb1, 0xb8,
  0xf4, 0x12, 0x03, 0x02, 0xfd, 0xf9, 0x09, 0xce, 0xd9, 0x45, 0x39, 0x47,
  0xa0, 0x2d, 0xc2, 0x44, 0x12, 0x47, 0xc1, 0xdc, 0xe7, 0xb9, 0x4f, 0x46,
  0x04, 0xfb, 0xf2, 0xe4, 0xcd, 0x10, 0x4c, 0x42, 0x23, 0xc7, 0x39, 0x5a,
  0x2f, 0xb3, 0x1a, 0x2a, 0xa9, 0x12, 0x34, 0xbe, 0x44, 0x16, 0x22, 0x55,
  0x34, 0x51, 0xc9, 0x46, 0x3b, 0xe0, 0xa9, 0xfa, 0xcb, 0xcb, 0x2d, 0xbf,
  0x33, 0x34, 0x27, 0x07, 0x24, 0x1c, 0x36, 0xa1, 0xaa, 0xa9, 0xa2, 0x5a,
  0xc7, 0xd0, 0x41, 0x00, 0x03, 0x4d, 0xe9, 0x39, 0x11, 0x5d, 0xcd, 0xe0,
  0x4b, 0x27, 0xc6, 0xce, 0x35, 0x31, 0xa1, 0xf1, 0x1d, 0xef, 0xa4, 0xa1,
  0xde, 0xd0, 0x52, 0xf7, 0x0c, 0x58, 0x03, 0x30, 0x3d, 0x12, 0x02, 0xbc,
  0x00, 0xb6, 0x45, 0x39, 0xe5, 0xb0, 0xd4, 0xbf, 0xdb, 0x3e, 0x37, 0x10,
  0x23, 0xef, 0xa1, 0x38, 0xa3, 0x02, 0x12, 0x42, 0xfb, 0x0e, 0xef, 0xa6,
  0xd8, 0x1f, 0x9f, 0xfb, 0x59, 0x10, 0xcc, 0x0f, 0xf9, 0xec, 0x3e, 0x48,
  0x18, 0x45, 0x34, 0xf1, 0xc2, 0xf0, 0xbe, 0xe2, 0xc7, 0xd2, 0x06, 0xa1,
  0xd6, 0x12, 0x37, 0x3e, 0x09, 0x38, 0x11, 0xf9, 0x12, 0x12, 0xc8, 0x15,
  0x0f, 0xa9, 0xc9, 0x56, 0xac, 0xda, 0xd7, 0xf8, 0xfe, 0xb0, 0x05, 0x58,
  0x54, 0x0e, 0x17, 0xc4, 0xac, 0x30, 0x06, 0xf6, 0xa9, 0x47, 0xc4, 0xfb,
  0x4d, 0xd0, 0x44, 0xd3, 0xf0, 0x2e, 0xa8, 0xf3, 0x4e, 0xaf, 0x2c, 0xa4,
  0xfc, 0xfc, 0xe8, 0xcb, 0x0c, 0xfa, 0xe2, 0x44, 0xb7, 0x29, 0xb4, 0x44,
  0x58, 0x02, 0xab, 0xed, 0xd9, 0x05, 0xf8, 0x1b, 0xb4, 0xe0, 0xdf, 0xed,
  0x42, 0xa1, 0xdc, 0xf3, 0xa8, 0x5a, 0x2b, 0xc4, 0xa8, 0xb6, 0xfe, 0x08,
  0x29, 0xc1, 0x32, 0xf1, 0xa1, 0xc8, 0x43, 0x4c, 0x31, 0x4e, 0x4d, 0xfb,
  0x4e, 0x0d, 0x29, 0x53, 0xdb, 0xf6, 0xb5, 0x1c, 0x0a, 0xff, 0xec, 0xb8,
  0x0e, 0xac, 0xb4, 0x36, 0x5b, 0xd8, 0xdd, 0x0f, 0x51, 0x08, 0xe5, 0x22,
  0xe9, 0xbf, 0xbf, 0xe2, 0xdc, 0x05, 0x53, 0xdb, 0x06, 0x26, 0xbd, 0xf7,
  0xf6, 0xff, 0xbb, 0x24, 0xc9, 0x26, 0xcf, 0x4a, 0xb0, 0x24, 0xea, 0x0a,
  0xdc, 0xe4, 0xeb, 0xe3, 0x54, 0x00, 0x02, 0x0d, 0xfd, 0xae, 0xfc, 0x16,
  0x2e, 0xc4, 0xfc, 0x1c, 0xf3, 0xf6, 0xbc, 0xb3, 0xd3, 0x0d, 0xde, 0x24,
  0xaf, 0x1a, 0x30, 0x43, 0x04, 0xcb, 0xf7, 0xfd, 0xb9, 0x02, 0x38, 0x17,
  0x1b, 0xc0, 0xf9, 0xfb, 0xee, 0x0b, 0x00, 0xf4, 0xac, 0x4f, 0xcd, 0x5b,
  0x46, 0xaf, 0x20, 0xe7, 0x0a, 0xf5, 0xe2, 0x14, 0x23, 0x2b, 0x00, 0xb2,
  0x53, 0xd6, 0x5a, 0x55, 0xf1, 0xe3, 0xe5, 0x48, 0x0e, 0xad, 0x03, 0xa6,
  0xa4, 0x56, 0xc5, 0x2e, 0x2f, 0xd9, 0xae, 0xa1, 0x5b, 0xdf, 0xe9, 0x1b,
  0xe7, 0x49, 0x52, 0xb6, 0xc2, 0x0f, 0x0f, 0x34, 0xa5, 0xbc, 0xc1, 0xf9,
  0xe8, 0xae, 0xe0, 0x4b, 0xcc, 0x22, 0xb4, 0x0b, 0x4a, 0x2f, 0xa9, 0x4a,
  0xcf, 0xb9, 0xc2, 0x00, 0x2a, 0xc7, 0xe9, 0x3b, 0x0f, 0xe8, 0x1e, 0xab,
  0xb0, 0xbe, 0x22, 0x2a, 0x0f, 0xf8, 0xac, 0x28, 0xee, 0x1c, 0xbc, 0x53,
  0xaa, 0x3e, 0xe8, 0x19, 0xa6, 0x25, 0xa0, 0xd6, 0x15, 0xfd, 0xb1, 0x04,
  0xa6, 0x31, 0xc3, 0xa2, 0xab, 0xf9, 0xad, 0x30, 0xef, 0x30, 0x14, 0xdc,
  0x40, 0x08, 0xc4, 0x1f, 0x02, 0x39, 0xb9, 0x50, 0xf9, 0x0b, 0x2e, 0xc0,
  0xb4, 0xc7, 0x43, 0xba, 0xb5, 0xfd, 0xa7, 0x2d, 0x30, 0xf8, 0xe8, 0xf0,
  0xd3, 0x28, 0x0f, 0xbd, 0xaa, 0xb1, 0x1f, 0x1b, 0xb7, 0xb2, 0x3c, 0xe7,
  0xc1, 0x2f, 0xc5, 0x5e, 0xc9, 0x2c, 0x09, 0x37, 0xed, 0xa0, 0x0b, 0x4a,
  0xef, 0xe0, 0xfa, 0xb9, 0x4f, 0xf2, 0xe3, 0x3f, 0xe2, 0xd6, 0xee, 0x23,
  0xb2, 0x9d, 0xa2, 0x43, 0x55, 0x44, 0x0a, 0xca, 0x2e, 0xa2, 0xf4, 0xf4,
  0xb7, 0xe9, 0x42, 0xfb, 0xf2, 0x51, 0x55, 0xea, 0xda, 0x11, 0x58, 0xfd,
  0xa4, 0x2b, 0x4c, 0x34, 0x31, 0x2a, 0xe4, 0xa4, 0xe0, 0x51, 0xc6, 0x23,
  0x25, 0xd0, 0x0d, 0xf4, 0xce, 0xc7, 0xe5, 0xc9, 0x20, 0xfd, 0x00, 0x0f,
  0x10, 0xb0, 0xcf, 0x09, 0x0f, 0xfb, 0xc0, 0xc3, 0xaa, 0x57, 0x12, 0x30,
  0xea, 0xae, 0xe1, 0x07, 0xa1, 0x58, 0xd2, 0xa1, 0x10, 0xcc, 0xb8, 0x2b,
  0x51, 0xb9, 0x2e, 0xbe, 0xc1, 0xc9, 0x4a, 0xec, 0x28, 0x0c, 0xf0, 0xaf,
  0xa6, 0x26, 0xec, 0x3c, 0x26, 0x0b, 0x58, 0xd5, 0x55, 0xf2, 0xdf, 0x2d,
  0x2e, 0x53, 0x2b, 0x36, 0xe0, 0xa8, 0x23, 0x3c, 0xc9, 0xcc, 0xfb, 0x4e,
  0x0c, 0xc8, 0xbe, 0x4c, 0x4a, 0xca, 0xfc, 0x33, 0xd5, 0x55, 0xae, 0xa4,
  0xa6, 0x0d, 0x23, 0x17, 0x06, 0xb0, 0x5b, 0xfb, 0x04, 0x36, 0xc0, 0x0a,
  0xb9, 0xb2, 0x12, 0x3f, 0x03, 0xd8, 0xe9, 0xd0, 0xee, 0x17, 0x19, 0xf5,
  0xdd, 0x09, 0x23, 0x32, 0xf9, 0xa5, 0x05, 0xee, 0x45, 0xbb, 0x03, 0x41,
  0xe6, 0xe9, 0xc1, 0xf0, 0xd5, 0x4c, 0x4c, 0xdf, 0x05, 0x09, 0x4f, 0x33,
  0xa4, 0xfb, 0xab, 0x2d, 0x04, 0xa0, 0x20, 0x35, 0x15, 0xce, 0x01, 0xf7,
  0x00, 0x00, 0x00, 0x00, 0xae, 0xfe, 0xff, 0xff, 0x04, 0x00, 0x00, 0x00,
  0x08, 0x00, 0x00, 0x00, 0xff, 0xff, 0xff, 0xff, 0x08, 0x03, 0x00, 0x00,
  0x00, 0x00, 0x00, 0x00, 0x00, 0x00, 0x00, 0x00, 0x00, 0x00, 0x00, 0x00,
  0xce, 0xfe, 0xff, 0xff, 0x04, 0x00, 0x00, 0x00, 0x10, 0x00, 0x00, 0x00,
  0xf4, 0xcf, 0xb5, 0x3c, 0x83, 0x00, 0x78, 0xbc, 0x58, 0xb4, 0xab, 0xbb,
  0xff, 0x60, 0x1c, 0x3c, 0x00, 0x00, 0x00, 0x00, 0xee, 0xfe, 0xff, 0xff,
  0x04, 0x00, 0x00, 0x00, 0x10, 0x00, 0x00, 0x00, 0x33, 0x45, 0x85, 0xbb,
  0x28, 0x42, 0x1a, 0x3d, 0xd3, 0xe7, 0x07, 0x3d, 0x35, 0x3d, 0x0a, 0x3c,
  0x00, 0x00, 0x00, 0x00, 0x0e, 0xff, 0xff, 0xff, 0x04, 0x00, 0x00, 0x00,
  0x20, 0x00, 0x00, 0x00, 0x40, 0xc9, 0x05, 0x3d, 0x2b, 0xd1, 0x07, 0xbc,
  0x64, 0x28, 0x2c, 0xbc, 0x57, 0x8b, 0xc2, 0x3c, 0xe0, 0xdc, 0x4d, 0xbc,
  0x1f, 0xf5, 0xec, 0x3c, 0x79, 0x16, 0x24, 0xbb, 0x6f, 0xaa, 0xc3, 0xbb,
  0x00, 0x00, 0x00, 0x00, 0x3e, 0xff, 0xff, 0xff, 0x04, 0x00, 0x00, 0x00,
  0x08, 0x00, 0x00, 0x00, 0xa1, 0xa2, 0xdc, 0x3c, 0xa1, 0xa2, 0xdc, 0xbc,
  0x00, 0x00, 0x00, 0x00, 0x30, 0xf9, 0xff, 0xff, 0x00, 0x00, 0x00, 0x00,
  0x00, 0x00, 0x00, 0x00, 0x00, 0x00, 0x00, 0x00, 0x40, 0xf9, 0xff, 0xff,
  0x0f, 0x00, 0x00, 0x00, 0x4d, 0x4c, 0x49, 0x52, 0x20, 0x43, 0x6f, 0x6e,
  0x76, 0x65, 0x72, 0x74, 0x65, 0x64, 0x2e, 0x00, 0x01, 0x00, 0x00, 0x00,
  0x14, 0x00, 0x00, 0x00, 0x00, 0x00, 0x0e, 0x00, 0x18, 0x00, 0x04, 0x00,
  0x08, 0x00, 0x0c, 0x00, 0x10, 0x00, 0x14, 0x00, 0x0e, 0x00, 0x00, 0x00,
  0xe0, 0x01, 0x00, 0x00, 0xd4, 0x01, 0x00, 0x00, 0xc8, 0x01, 0x00, 0x00,
  0x14, 0x00, 0x00, 0x00, 0x04, 0x00, 0x00, 0x00, 0x04, 0x00, 0x00, 0x00,
  0x6d, 0x61, 0x69, 0x6e, 0x00, 0x00, 0x00, 0x00, 0x06, 0x00, 0x00, 0x00,
  0x64, 0x01, 0x00, 0x00, 0x14, 0x01, 0x00, 0x00, 0xec, 0x00, 0x00, 0x00,
  0x98, 0x00, 0x00, 0x00, 0x50, 0x00, 0x00, 0x00, 0x14, 0x00, 0x00, 0x00,
  0x00, 0x00, 0x0e, 0x00, 0x1a, 0x00, 0x08, 0x00, 0x0c, 0x00, 0x10, 0x00,
  0x07, 0x00, 0x14, 0x00, 0x0e, 0x00, 0x00, 0x00, 0x00, 0x00, 0x00, 0x09,
  0x03, 0x00, 0x00, 0x00, 0x24, 0x00, 0x00, 0x00, 0x18, 0x00, 0x00, 0x00,
  0x0c, 0x00, 0x00, 0x00, 0x00, 0x00, 0x06, 0x00, 0x08, 0x00, 0x04, 0x00,
  0x06, 0x00, 0x00, 0x00, 0x00, 0x00, 0x80, 0x3f, 0x01, 0x00, 0x00, 0x00,
  0x0f, 0x00, 0x00, 0x00, 0x01, 0x00, 0x00, 0x00, 0x0e, 0x00, 0x00, 0x00,
  0xca, 0xff, 0xff, 0xff, 0x00, 0x00, 0x00, 0x08, 0x02, 0x00, 0x00, 0x00,
  0x18, 0x00, 0x00, 0x00, 0x0c, 0x00, 0x00, 0x00, 0x04, 0x00, 0x00, 0x00,
  0x10, 0xfa, 0xff, 0xff, 0x01, 0x00, 0x00, 0x00, 0x0e, 0x00, 0x00, 0x00,
  0x03, 0x00, 0x00, 0x00, 0x0d, 0x00, 0x00, 0x00, 0x07, 0x00, 0x00, 0x00,
  0x01, 0x00, 0x00, 0x00, 0x00, 0x00, 0x0e, 0x00, 0x18, 0x00, 0x08, 0x00,
  0x0c, 0x00, 0x10, 0x00, 0x07, 0x00, 0x14, 0x00, 0x0e, 0x00, 0x00, 0x00,
  0x00, 0x00, 0x00, 0x08, 0x02, 0x00, 0x00, 0x00, 0x28, 0x00, 0x00, 0x00,
  0x1c, 0x00, 0x00, 0x00, 0x10, 0x00, 0x00, 0x00, 0x0c, 0x00, 0x08, 0x00,
  0x06, 0x00, 0x00, 0x00, 0x00, 0x00, 0x07, 0x00, 0x0c, 0x00, 0x00, 0x00,
  0x00, 0x00, 0x01, 0x01, 0x01, 0x00, 0x00, 0x00, 0x0d, 0x00, 0x00, 0x00,
  0x03, 0x00, 0x00, 0x00, 0x0c, 0x00, 0x00, 0x00, 0x06, 0x00, 0x00, 0x00,
  0x02, 0x00, 0x00, 0x00, 0x00, 0x00, 0x0a, 0x00, 0x10, 0x00, 0x04, 0x00,
  0x08, 0x00, 0x0c, 0x00, 0x0a, 0x00, 0x00, 0x00, 0x01, 0x00, 0x00, 0x00,
  0x10, 0x00, 0x00, 0x00, 0x04, 0x00, 0x00, 0x00, 0x01, 0x00, 0x00, 0x00,
  0x0c, 0x00, 0x00, 0x00, 0x02, 0x00, 0x00, 0x00, 0x0b, 0x00, 0x00, 0x00,
  0x05, 0x00, 0x00, 0x00, 0xc2, 0xff, 0xff, 0xff, 0x00, 0x00, 0x00, 0x01,
  0x24, 0x00, 0x00, 0x00, 0x18, 0x00, 0x00, 0x00, 0x04, 0x00, 0x00, 0x00,
  0xb4, 0xff, 0xff, 0xff, 0x00, 0x00, 0x01, 0x01, 0x01, 0x00, 0x00, 0x00,
  0x01, 0x00, 0x00, 0x00, 0x01, 0x00, 0x00, 0x00, 0x0b, 0x00, 0x00, 0x00,
  0x03, 0x00, 0x00, 0x00, 0x0a, 0x00, 0x00, 0x00, 0x09, 0x00, 0x00, 0x00,
  0x03, 0x00, 0x00, 0x00, 0x00, 0x00, 0x0e, 0x00, 0x14, 0x00, 0x00, 0x00,
  0x08, 0x00, 0x0c, 0x00, 0x07, 0x00, 0x10, 0x00, 0x0e, 0x00, 0x00, 0x00,
  0x00, 0x00, 0x00, 0x01, 0x30, 0x00, 0x00, 0x00, 0x24, 0x00, 0x00, 0x00,
  0x10, 0x00, 0x00, 0x00, 0x0c, 0x00, 0x10, 0x00, 0x06, 0x00, 0x08, 0x00,
  0x0c, 0x00, 0x07, 0x00, 0x0c, 0x00, 0x00, 0x00, 0x00, 0x00, 0x01, 0x01,
  0x01, 0x00, 0x00, 0x00, 0x01, 0x00, 0x00, 0x00, 0x01, 0x00, 0x00, 0x00,
  0x0a, 0x00, 0x00, 0x00, 0x03, 0x00, 0x00, 0x00, 0x00, 0x00, 0x00, 0x00,
  0x08, 0x00, 0x00, 0x00, 0x04, 0x00, 0x00, 0x00, 0x01, 0x00, 0x00, 0x00,
  0x0f, 0x00, 0x00, 0x00, 0x01, 0x00, 0x00, 0x00, 0x00, 0x00, 0x00, 0x00,
  0x10, 0x00, 0x00, 0x00, 0x7c, 0x04, 0x00, 0x00, 0x30, 0x04, 0x00, 0x00,
  0xec, 0x03, 0x00, 0x00, 0xb4, 0x03, 0x00, 0x00, 0x80, 0x03, 0x00, 0x00,
  0x44, 0x03, 0x00, 0x00, 0xc8, 0x02, 0x00, 0x00, 0x8c, 0x02, 0x00, 0x00,
  0x48, 0x02, 0x00, 0x00, 0x04, 0x02, 0x00, 0x00, 0xa8, 0x01, 0x00, 0x00,
  0x48, 0x01, 0x00, 0x00, 0x00, 0x01, 0x00, 0x00, 0xb0, 0x00, 0x00, 0x00,
  0x5c, 0x00, 0x00, 0x00, 0x04, 0x00, 0x00, 0x00, 0xd8, 0xfb, 0xff, 0xff,
  0x44, 0x00, 0x00, 0x00, 0x10, 0x00, 0x00, 0x00, 0x1c, 0x00, 0x00, 0x00,
  0x14, 0x00, 0x00, 0x00, 0x04, 0x00, 0x00, 0x00, 0x02, 0x00, 0x00, 0x00,
  0xff, 0xff, 0xff, 0xff, 0x02, 0x00, 0x00, 0x00, 0xbc, 0xfb, 0xff, 0xff,
  0x19, 0x00, 0x00, 0x00, 0x53, 0x74, 0x61, 0x74, 0x65, 0x66, 0x75, 0x6c,
  0x50, 0x61, 0x72, 0x74, 0x69, 0x74, 0x69, 0x6f, 0x6e, 0x65, 0x64, 0x43,
  0x61, 0x6c, 0x6c, 0x3a, 0x30, 0x00, 0x00, 0x00, 0x02, 0x00, 0x00, 0x00,
  0x01, 0x00, 0x00, 0x00, 0x02, 0x00, 0x00, 0x00, 0x2c, 0xfc, 0xff, 0xff,
  0x40, 0x00, 0x00, 0x00, 0x0f, 0x00, 0x00, 0x00, 0x1c, 0x00, 0x00, 0x00,
  0x14, 0x00, 0x00, 0x00, 0x04, 0x00, 0x00, 0x00, 0x02, 0x00, 0x00, 0x00,
  0xff, 0xff, 0xff, 0xff, 0x02, 0x00, 0x00, 0x00, 0x10, 0xfc, 0xff, 0xff,
  0x14, 0x00, 0x00, 0x00, 0x74, 0x66, 0x6c, 0x2e, 0x66, 0x75, 0x6c, 0x6c,
  0x79, 0x5f, 0x63, 0x6f, 0x6e, 0x6e, 0x65, 0x63, 0x74, 0x65, 0x64, 0x31,
  0x00, 0x00, 0x00, 0x00, 0x02, 0x00, 0x00, 0x00, 0x01, 0x00, 0x00, 0x00,
  0x02, 0x00, 0x00, 0x00, 0x7c, 0xfc, 0xff, 0xff, 0x3c, 0x00, 0x00, 0x00,
  0x0e, 0x00, 0x00, 0x00, 0x1c, 0x00, 0x00, 0x00, 0x14, 0x00, 0x00, 0x00,
  0x04, 0x00, 0x00, 0x00, 0x02, 0x00, 0x00, 0x00, 0xff, 0xff, 0xff, 0xff,
  0x08, 0x00, 0x00, 0x00, 0x60, 0xfc, 0xff, 0xff, 0x13, 0x00, 0x00, 0x00,
  0x74, 0x66, 0x6c, 0x2e, 0x66, 0x75, 0x6c, 0x6c, 0x79, 0x5f, 0x63, 0x6f,
  0x6e, 0x6e, 0x65, 0x63, 0x74, 0x65, 0x64, 0x00, 0x02, 0x00, 0x00, 0x00,
  0x01, 0x00, 0x00, 0x00, 0x08, 0x00, 0x00, 0x00, 0xc8, 0xfc, 0xff, 0xff,
  0x34, 0x00, 0x00, 0x00, 0x0d, 0x00, 0x00, 0x00, 0x1c, 0x00, 0x00, 0x00,
  0x14, 0x00, 0x00, 0x00, 0x04, 0x00, 0x00, 0x00, 0x02, 0x00, 0x00, 0x00,
  0xff, 0xff, 0xff, 0xff, 0x08, 0x03, 0x00, 0x00, 0xac, 0xfc, 0xff, 0xff,
  0x0b, 0x00, 0x00, 0x00, 0x74, 0x66, 0x6c, 0x2e, 0x72, 0x65, 0x73, 0x68,
  0x61, 0x70, 0x65, 0x00, 0x02, 0x00, 0x00, 0x00, 0x01, 0x00, 0x00, 0x00,
  0x08, 0x03, 0x00, 0x00, 0x0c, 0xfd, 0xff, 0xff, 0x44, 0x00, 0x00, 0x00,
  0x0c, 0x00, 0x00, 0x00, 0x24, 0x00, 0x00, 0x00, 0x1c, 0x00, 0x00, 0x00,
  0x04, 0x00, 0x00, 0x00, 0x04, 0x00, 0x00, 0x00, 0xff, 0xff, 0xff, 0xff,
  0x61, 0x00, 0x00, 0x00, 0x02, 0x00, 0x00, 0x00, 0x04, 0x00, 0x00, 0x00,
  0xf8, 0xfc, 0xff, 0xff, 0x10, 0x00, 0x00, 0x00, 0x3b, 0x3b, 0x3b, 0x63,
  0x6f, 0x6e, 0x76, 0x32, 0x64, 0x5f, 0x31, 0x2f, 0x62, 0x69, 0x61, 0x73,
  0x00, 0x00, 0x00, 0x00, 0x04, 0x00, 0x00, 0x00, 0x01, 0x00, 0x00, 0x00,
  0x61, 0x00, 0x00, 0x00, 0x02, 0x00, 0x00, 0x00, 0x04, 0x00, 0x00, 0x00,
  0x68, 0xfd, 0xff, 0xff, 0x40, 0x00, 0x00, 0x00, 0x0b, 0x00, 0x00, 0x00,
  0x24, 0x00, 0x00, 0x00, 0x1c, 0x00, 0x00, 0x00, 0x04, 0x00, 0x00, 0x00,
  0x04, 0x00, 0x00, 0x00, 0xff, 0xff, 0xff, 0xff, 0x62, 0x00, 0x00, 0x00,
  0x03, 0x00, 0x00, 0x00, 0x04, 0x00, 0x00, 0x00, 0x54, 0xfd, 0xff, 0xff,
  0x0f, 0x00, 0x00, 0x00, 0x3b, 0x3b, 0x3b, 0x3b, 0x63, 0x6f, 0x6e, 0x76,
  0x32, 0x64, 0x2f, 0x62, 0x69, 0x61, 0x73, 0x00, 0x04, 0x00, 0x00, 0x00,
  0x01, 0x00, 0x00, 0x00, 0x62, 0x00, 0x00, 0x00, 0x03, 0x00, 0x00, 0x00,
  0x04, 0x00, 0x00, 0x00, 0x02, 0xfe, 0xff, 0xff, 0x28, 0x00, 0x00, 0x00,
  0x0a, 0x00, 0x00, 0x00, 0x0c, 0x00, 0x00, 0x00, 0x04, 0x00, 0x00, 0x00,
  0x94, 0xfd, 0xff, 0xff, 0x0d, 0x00, 0x00, 0x00, 0x73, 0x74, 0x64, 0x2e,
  0x63, 0x6f, 0x6e, 0x73, 0x74, 0x61, 0x6e, 0x74, 0x34, 0x00, 0x00, 0x00,
  0x04, 0x00, 0x00, 0x00, 0x04, 0x00, 0x00, 0x00, 0x02, 0x00, 0x00, 0x00,
  0x02, 0x00, 0x00, 0x00, 0x04, 0x00, 0x00, 0x00, 0x42, 0xfe, 0xff, 0xff,
  0x28, 0x00, 0x00, 0x00, 0x09, 0x00, 0x00, 0x00, 0x0c, 0x00, 0x00, 0x00,
  0x04, 0x00, 0x00, 0x00, 0xd4, 0xfd, 0xff, 0xff, 0x0d, 0x00, 0x00, 0x00,
  0x73, 0x74, 0x64, 0x2e, 0x63, 0x6f, 0x6e, 0x73, 0x74, 0x61, 0x6e, 0x74,
  0x33, 0x00, 0x00, 0x00, 0x04, 0x00, 0x00, 0x00, 0x04, 0x00, 0x00, 0x00,
  0x03, 0x00, 0x00, 0x00, 0x01, 0x00, 0x00, 0x00, 0x01, 0x00, 0x00, 0x00,
  0x82, 0xfe, 0xff, 0xff, 0x28, 0x00, 0x00, 0x00, 0x08, 0x00, 0x00, 0x00,
  0x0c, 0x00, 0x00, 0x00, 0x04, 0x00, 0x00, 0x00, 0x14, 0xfe, 0xff, 0xff,
  0x0d, 0x00, 0x00, 0x00, 0x73, 0x74, 0x64, 0x2e, 0x63, 0x6f, 0x6e, 0x73,
  0x74, 0x61, 0x6e, 0x74, 0x32, 0x00, 0x00, 0x00, 0x02, 0x00, 0x00, 0x00,
  0x02, 0x00, 0x00, 0x00, 0x08, 0x00, 0x00, 0x00, 0x96, 0xff, 0xff, 0xff,
  0x00, 0x00, 0x00, 0x09, 0x54, 0x00, 0x00, 0x00, 0x07, 0x00, 0x00, 0x00,
  0x38, 0x00, 0x00, 0x00, 0x10, 0x00, 0x00, 0x00, 0x0c, 0x00, 0x0c, 0x00,
  0x00, 0x00, 0x00, 0x00, 0x04, 0x00, 0x08, 0x00, 0x0c, 0x00, 0x00, 0x00,
  0x18, 0x00, 0x00, 0x00, 0x04, 0x00, 0x00, 0x00, 0x01, 0x00, 0x00, 0x00,
  0x00, 0x00, 0x00, 0x00, 0x00, 0x00, 0x00, 0x00, 0x00, 0x00, 0x00, 0x00,
  0x01, 0x00, 0x00, 0x00, 0x34, 0x5b, 0x73, 0x3a, 0x0d, 0x00, 0x00, 0x00,
  0x73, 0x74, 0x64, 0x2e, 0x63, 0x6f, 0x6e, 0x73, 0x74, 0x61, 0x6e, 0x74,
  0x31, 0x00, 0x00, 0x00, 0x02, 0x00, 0x00, 0x00, 0x08, 0x00, 0x00, 0x00,
  0x08, 0x03, 0x00, 0x00, 0x00, 0x00, 0x0e, 0x00, 0x18, 0x00, 0x08, 0x00,
  0x07, 0x00, 0x0c, 0x00, 0x10, 0x00, 0x14, 0x00, 0x0e, 0x00, 0x00, 0x00,
  0x00, 0x00, 0x00, 0x02, 0x28, 0x00, 0x00, 0x00, 0x06, 0x00, 0x00, 0x00,
  0x0c, 0x00, 0x00, 0x00, 0x04, 0x00, 0x00, 0x00, 0xc8, 0xfe, 0xff, 0xff,
  0x0c, 0x00, 0x00, 0x00, 0x73, 0x74, 0x64, 0x2e, 0x63, 0x6f, 0x6e, 0x73,
  0x74, 0x61, 0x6e, 0x74, 0x00, 0x00, 0x00, 0x00, 0x01, 0x00, 0x00, 0x00,
  0x02, 0x00, 0x00, 0x00, 0x6a, 0xff, 0xff, 0xff, 0x24, 0x00, 0x00, 0x00,
  0x05, 0x00, 0x00, 0x00, 0x0c, 0x00, 0x00, 0x00, 0x04, 0x00, 0x00, 0x00,
  0xfc, 0xfe, 0xff, 0xff, 0x0b, 0x00, 0x00, 0x00, 0x63, 0x6f, 0x6e, 0x76,
  0x32, 0x64, 0x2f, 0x62, 0x69, 0x61, 0x73, 0x00, 0x01, 0x00, 0x00, 0x00,
  0x04, 0x00, 0x00, 0x00, 0x9a, 0xff, 0xff, 0xff, 0x28, 0x00, 0x00, 0x00,
  0x04, 0x00, 0x00, 0x00, 0x0c, 0x00, 0x00, 0x00, 0x04, 0x00, 0x00, 0x00,
  0x2c, 0xff, 0xff, 0xff, 0x0d, 0x00, 0x00, 0x00, 0x63, 0x6f, 0x6e, 0x76,
  0x32, 0x64, 0x5f, 0x31, 0x2f, 0x62, 0x69, 0x61, 0x73, 0x00, 0x00, 0x00,
  0x01, 0x00, 0x00, 0x00, 0x04, 0x00, 0x00, 0x00, 0xce, 0xff, 0xff, 0xff,
  0x24, 0x00, 0x00, 0x00, 0x03, 0x00, 0x00, 0x00, 0x0c, 0x00, 0x00, 0x00,
  0x04, 0x00, 0x00, 0x00, 0x60, 0xff, 0xff, 0xff, 0x0a, 0x00, 0x00, 0x00,
  0x64, 0x65, 0x6e, 0x73, 0x65, 0x2f, 0x62, 0x69, 0x61, 0x73, 0x00, 0x00,
  0x01, 0x00, 0x00, 0x00, 0x08, 0x00, 0x00, 0x00, 0x00, 0x00, 0x0e, 0x00,
  0x14, 0x00, 0x04, 0x00, 0x00, 0x00, 0x08, 0x00, 0x0c, 0x00, 0x10, 0x00,
  0x0e, 0x00, 0x00, 0x00, 0x28, 0x00, 0x00, 0x00, 0x02, 0x00, 0x00, 0x00,
  0x0c, 0x00, 0x00, 0x00, 0x04, 0x00, 0x00, 0x00, 0xa0, 0xff, 0xff, 0xff,
  0x0c, 0x00, 0x00, 0x00, 0x64, 0x65, 0x6e, 0x73, 0x65, 0x5f, 0x31, 0x2f,
  0x62, 0x69, 0x61, 0x73, 0x00, 0x00, 0x00, 0x00, 0x01, 0x00, 0x00, 0x00,
  0x02, 0x00, 0x00, 0x00, 0x14, 0x00, 0x18, 0x00, 0x04, 0x00, 0x00, 0x00,
  0x08, 0x00, 0x0c, 0x00, 0x10, 0x00, 0x00, 0x00, 0x00, 0x00, 0x14, 0x00,
  0x14, 0x00, 0x00, 0x00, 0x54, 0x00, 0x00, 0x00, 0x01, 0x00, 0x00, 0x00,
  0x28, 0x00, 0x00, 0x00, 0x20, 0x00, 0x00, 0x00, 0x04, 0x00, 0x00, 0x00,
  0x04, 0x00, 0x00, 0x00, 0xff, 0xff, 0xff, 0xff, 0x64, 0x00, 0x00, 0x00,
  0x03, 0x00, 0x00, 0x00, 0x01, 0x00, 0x00, 0x00, 0x04, 0x00, 0x04, 0x00,
  0x04, 0x00, 0x00, 0x00, 0x1e, 0x00, 0x00, 0x00, 0x73, 0x65, 0x72, 0x76,
  0x69, 0x6e, 0x67, 0x5f, 0x64, 0x65, 0x66, 0x61, 0x75, 0x6c, 0x74, 0x5f,
  0x63, 0x6f, 0x6e, 0x76, 0x32, 0x64, 0x5f, 0x69, 0x6e, 0x70, 0x75, 0x74,
  0x3a, 0x30, 0x00, 0x00, 0x04, 0x00, 0x00, 0x00, 0x01, 0x00, 0x00, 0x00,
  0x64, 0x00, 0x00, 0x00, 0x03, 0x00, 0x00, 0x00, 0x01, 0x00, 0x00, 0x00,
  0x04, 0x00, 0x00, 0x00, 0x50, 0x00, 0x00, 0x00, 0x34, 0x00, 0x00, 0x00,
  0x14, 0x00, 0x00, 0x00, 0x04, 0x00, 0x00, 0x00, 0xe4, 0xff, 0xff, 0xff,
  0x00, 0x00, 0x00, 0x19, 0x19, 0x00, 0x00, 0x00, 0xd8, 0xff, 0xff, 0xff,
  0x00, 0x00, 0x00, 0x09, 0x09, 0x00, 0x00, 0x00, 0x09, 0x00, 0x00, 0x00,
  0x0c, 0x00, 0x0c, 0x00, 0x07, 0x00, 0x00, 0x00, 0x00, 0x00, 0x08, 0x00,
  0x0c, 0x00, 0x00, 0x00, 0x00, 0x00, 0x00, 0x16, 0x16, 0x00, 0x00, 0x00,
  0x0c, 0x00, 0x10, 0x00, 0x07, 0x00, 0x00, 0x00, 0x08, 0x00, 0x0c, 0x00,
  0x0c, 0x00, 0x00, 0x00, 0x00, 0x00, 0x00, 0x03, 0x05, 0x00, 0x00, 0x00,
  0x03, 0x00, 0x00, 0x00
};

#endif //MODELTEST_H